/**
  ******************************************************************************
  * @file    network_data_params.c
  * @author  AST Embedded Analytics Research Platform
  * @date    2025-07-31T17:44:30+0000
  * @brief   AI Tool Automatic Code Generator for Embedded NN computing
  ******************************************************************************
  * Copyright (c) 2025 STMicroelectronics.
  * All rights reserved.
  *
  * This software is licensed under terms that can be found in the LICENSE file
  * in the root directory of this software component.
  * If no LICENSE file comes with this software, it is provided AS-IS.
  ******************************************************************************
  */

#include "network_data_params.h"


/**  Activations Section  ****************************************************/
ai_handle g_network_activations_table[1 + 2] = {
  AI_HANDLE_PTR(AI_MAGIC_MARKER),
  AI_HANDLE_PTR(NULL),
  AI_HANDLE_PTR(AI_MAGIC_MARKER),
};




/**  Weights Section  ********************************************************/
AI_ALIGNED(32)
const ai_u64 s_network_weights_array_u64[7553] = {
  0x3e6422fc3e5f19c7U, 0xbd85bcfbbe79221cU, 0xbdb20ba7bc76b512U, 0xbeb907f7be056078U,
  0xbe8a739bbb6cc806U, 0x3e55f7fdbe5eeef4U, 0xbd6fa01bbebb9db2U, 0xbd2389c9bebb8bfdU,
  0xbeb4f39bbdc3c897U, 0x3eb395663e311a44U, 0xbc190efb3da7efb2U, 0xbe9b7359bdc65921U,
  0xbe61f2bfbf005ab2U, 0x3d40cf88bed682dbU, 0xbcccb7cc3ed5a52bU, 0xbe3ddc14bee37b7eU,
  0x3bb0d3e2becdc212U, 0x3e44d2d5bebc01b2U, 0x3ebcc0903ec09b90U, 0x3e46ba9a3eaf14d1U,
  0xbe1dbec8bc818affU, 0xbed93485be8923ffU, 0x3e48f1dabec30444U, 0xbdc73a1c3ec4fd82U,
  0xbdb94933be84c7e7U, 0xbe856d0ebf023055U, 0xbe02f46bbcea5317U, 0x3d2d44ccbe5bdddaU,
  0x3e868a7b3deb30d9U, 0xbec0f27d3e8266e9U, 0x3cffef33bcfb9ff1U, 0x3e7a7ba93d97ae31U,
  0x3e866db7beb039dfU, 0xbe9507b23e48ff68U, 0x3e0ef949be39ea32U, 0x3e5af554be5a055bU,
  0xbd34658a3e0adca0U, 0x3e9ced0a3e9f4251U, 0xbd4395383e74ffb4U, 0xbead824abe28bb80U,
  0xbd228d9dbe1a6192U, 0x3b5738e2bda649abU, 0x3c8778f7bc1db5aeU, 0x3cab7144bd83063dU,
  0xbddb8b87bc35a117U, 0xbc8f3605bd826964U, 0xbdbc58863aa17f0aU, 0x3d13e90dbdc6e45eU,
  0xbdf415cfbbd3294cU, 0x3d7c77f4bdf15bc9U, 0x3bb86341bdf292ecU, 0xbe9c2f53be3aacdaU,
  0x39ba0cd63d6b44bbU, 0xbe93bfdfbd142fd5U, 0x3dff7e55be6341f0U, 0x3d478583be93d622U,
  0x3dcde5023c30ac38U, 0x3e0eb9023d3cbde2U, 0x3d0c97863d188b3dU, 0x3c4910403d38c71bU,
  0xbe1d95203d1addf6U, 0xbe4bae82bdd28748U, 0x3bfa55c6be383d50U, 0xbdeda97ebdf4291bU,
  0xbe453fa4be6964f7U, 0x3ea902c6be05371fU, 0x3d2d9fe2be242251U, 0x3db913ee3d2f9232U,
  0xbe8f2070be3f3f3dU, 0xbc548b86be238914U, 0xbe110b6dbd0a8c7dU, 0xbe799b113a9c0cb2U,
  0xbd14e219bd91c663U, 0xbe143653bdfe2bc9U, 0xbdd7c44fbd6bd369U, 0x3d3159683dcbc663U,
  0xbd7380d2bd7713f2U, 0x3db7f61b3d17f394U, 0x3d8fd5543e0b6a1fU, 0x3e1688c0bd868a68U,
  0x3b656b863c99c4d8U, 0x3e8a212dbe1f402bU, 0x3e0e603cbe920f6dU, 0x3e006a413d83a237U,
  0x3e6a677bbd177de6U, 0xbd3cef34be1a10ffU, 0x3e8619eebcbd201aU, 0x3e099470bd976706U,
  0xbdd57567be16c6e1U, 0x3e09263cbdfd9badU, 0xbda983f1be92ad4cU, 0xbdc4b42cbca6331cU,
  0xbe5dd6ddbe0974dcU, 0xbea519303cc003b6U, 0xbdc40d87be3cba55U, 0xbe92801fbe32e278U,
  0xbd6624dcbe96fedbU, 0x3e19f0f6babf7fcaU, 0x3c2c8b7c3d8a109eU, 0xbe73fd26bd9401e1U,
  0xbe4be5afbdbe0675U, 0x3d422bd23d0e3099U, 0xbde73a3e3d71e1a4U, 0xbd89426abe6e9f8bU,
  0x3da43a8bbdb183cfU, 0x3d86d49abc4be768U, 0xbd0c45b7bd54efceU, 0x3c2be974bdae9801U,
  0x3d3d30d63da94dd3U, 0x3c5eb5fcbd300459U, 0x3da455d9bcd352d3U, 0x3d5dfeab3e03eb25U,
  0xbd4c7e53be2e16c8U, 0xbd8005c83dc5725dU, 0x3e16b03bbe008911U, 0x3de5e0aa3dc1abffU,
  0xbdfce9163ce366bcU, 0x3e013f44be0909f4U, 0xbc5967fa3e28bbf1U, 0xbd6251a53d638f1aU,
  0x3e496cbf3d3cdefdU, 0xbf04dd0bbd00cb8eU, 0x3c0abdda3e75f638U, 0xbd3e864e3e434e92U,
  0x3ec85f523e26bcb1U, 0x3eaa684a3c8933deU, 0xbd3c8d533e4fe5efU, 0x3eb2a47bbc1bd8aeU,
  0xbe64d232bee8f0f1U, 0x3e2187eebe2420dfU, 0xbd6e69873e0bbe4bU, 0xbea0e864be819582U,
  0xbe88d28fbe14257aU, 0xbc6018f0be5eace9U, 0xbed6517a3d973ae4U, 0xbe70d4a8be8fa878U,
  0xbc044fb5bbccb9a4U, 0x3dfc2c363d3595caU, 0xbe0bede6bdabed55U, 0xbe3e7fcebddddcb9U,
  0xbdc17fcb3dfbd186U, 0xbe940da5bdea87bfU, 0x3e4289d4be22246cU, 0xbcef69363da87ab7U,
  0x3ddb2118bd88847eU, 0x3d74b379be08ab7fU, 0x3d6aeaed3e215e2eU, 0x3e1368613df9dc0fU,
  0xba49932cbdd152acU, 0xbe3803323dea26a2U, 0xbe32a2423e1bdf89U, 0x3c0e8904bd907ec7U,
  0x3d4501523e436fc1U, 0xbec6dcc9bdf0b05eU, 0xbd843d8dbda91853U, 0x3c008a5e3cf1840fU,
  0x3e91d305bd5046f8U, 0x3cb969dc3e17f331U, 0x3dd61a4ebcb64c25U, 0x3e859ba5bebf2de3U,
  0x3e52038b3e1b1887U, 0xbd65377f3e46742dU, 0xbded883f3e78e625U, 0x3e1fd6453e2e1b90U,
  0x3e097ba93df28a5bU, 0xbe8ea1963de73869U, 0x3e73d5843dd630b5U, 0x3e35251e3eb3264eU,
  0x3d1c7fd3be1b017aU, 0xbda4886abc6b5a94U, 0xbe6258803c33883fU, 0xbe291985bda2800cU,
  0xbd552a74be033dd1U, 0xbdbbbff4bd8d1406U, 0xbe81dd00be3f8190U, 0xbec3133bbce6d4b2U,
  0xbe8df5ae3ddee7faU, 0x3e96e5113b7be6a2U, 0x3e180566be19bc3bU, 0xbe256e7abb60356fU,
  0xbda73fd2be80d7a0U, 0xbe3eb20e3d440089U, 0x3dc75c7dbdfe6a8aU, 0xbeccc9553e509d1dU,
  0xbe8b65b63e13ef3aU, 0x3e292ddfbbf9dd73U, 0x3dedf1a9bae2dee2U, 0x3e34adbcbe467bc0U,
  0x3df4a3dcbe8f24daU, 0xbbc67ce8be0ea32eU, 0x3d91d7c43d0fb879U, 0xbdc262bd3ea1fe97U,
  0xbe3ce87e3e5b2107U, 0xbe741cbf3df64a7fU, 0xbc3322f93da2c166U, 0x3e35cb133db2aa1bU,
  0x3ea77e9abd84ae1aU, 0x3e81d47bbc236370U, 0xbd70ed583cce5be1U, 0x3e1a413a3e1cb89eU,
  0xbdafc113bcbbc35dU, 0x3cc3c31e3d38dc3cU, 0xbebbeb2e3d635112U, 0x3dcc65a93c20d606U,
  0x3e033e1bbe091333U, 0xbdd9b4cc3d9fb61fU, 0x3be090fbbdf0714eU, 0x3c9bf415bcb3404aU,
  0x3db8586dbe062018U, 0xbde3cd273e23c723U, 0x3e753c33bd45d842U, 0xbe6d95f23e182712U,
  0xbe46b3e5bd3a94e0U, 0x3e096323bc984657U, 0xbda49ed6bd13eb7dU, 0xbe3965363e28135eU,
  0x3d75c8d5bc4a3c9aU, 0x3cac030abd7de2f0U, 0xbd973391bddb2b4dU, 0xbe4c5287be1844d5U,
  0xbb20a72e3e1de1d8U, 0xbdad8459be796f51U, 0x3be2fd64bd32d9c8U, 0xbe11bc48be083737U,
  0xbd4c54d93d675408U, 0xbe3a4c4b3d5eb30fU, 0x3d9d422d3c894608U, 0xbd81951abdf783f4U,
  0xbd1942dc3cbc2b68U, 0xbd8790cd3ce96157U, 0xbdd18b673d0e1d2bU, 0xbd8a48fcbe16d445U,
  0xbe5161613d59fd43U, 0xbd86a8b53d5db97bU, 0x3e4fdfa5be6afa51U, 0xbdf64433bdd368ecU,
  0xbc601e2ebc21c7e9U, 0xbe18e3eabe500bd9U, 0xbe01a715bd2150c7U, 0xbdf7901bbc1666e8U,
  0x3d5017b43cc8e573U, 0xbe81c3c8be327455U, 0xbd8ce1ec3c37a7e5U, 0x3b43e2b6be793054U,
  0xbd4a00623e135f65U, 0xbdc9e5b7be874340U, 0xbe166599bdabe42dU, 0x3abd47febe0dd851U,
  0x3d2466ebbc798cf4U, 0x3e5cd86cbe101c6aU, 0x3da32880bea48bf4U, 0xbde1b7eb3dcbefd1U,
  0xbd1a84e63cf8982fU, 0x3cc1a89f3d0e0fc5U, 0xbe0a2f733dfa0702U, 0xbe1ece98be66e284U,
  0xbecf525ebcb6d073U, 0xbe2b42f23df52d58U, 0x3db4896d3b67419bU, 0xbd293ee2be180395U,
  0xbd7549b8bd8bafccU, 0x3da6a619bdd56b58U, 0xbda23db63e053c04U, 0xbd44b7e8bce6a066U,
  0xbe5f97e7be03c76cU, 0xbdaa64fabcb4996aU, 0x3e3d1a70be899114U, 0x3ba24715bd04e5dcU,
  0xbe2313773e02afacU, 0x3bc46145be855af6U, 0xbd95a8703d9a2e3eU, 0xbd91fa1b3c1a31aeU,
  0xbe2aa0e6bda7da0cU, 0x3c6b30cebdd2c5efU, 0xbe44c1193cf7b924U, 0xbcec3516bdcc1574U,
  0xbe4f398abcc4d6e2U, 0x3d326882be8ac0faU, 0xbdc704033d143029U, 0xbe433b93be2648c4U,
  0xbdcd5a05be66f19bU, 0x3ecf6611bc7939ceU, 0x3e803473bc6f4d48U, 0x3d658420bdb6846fU,
  0xbe28aed73d088743U, 0xbde3cedbbe45efa1U, 0x3e1df9c53ddeade1U, 0x3d8670e13e15a9deU,
  0xbe37b8383dad2703U, 0xbd2d643bbcbf45a8U, 0xbe06b7e3be456077U, 0x3e3f7f72bc5043e5U,
  0x3dce0cc03dcfb26bU, 0xbd50a6c03c5059bcU, 0x3db1267fbe4847e2U, 0x3d182de73d827bb8U,
  0xbcbd99f83e25b181U, 0xbe6c46f5be2ad991U, 0xbe49ae4dbdfdc8f0U, 0x3e275e803d32ffd4U,
  0x3e0eeef03d34f1eeU, 0x3e9104f53de17b41U, 0xbdb5d5c13d898a26U, 0xbd6372e43d874797U,
  0x3d17bab23e8c3166U, 0x3dafb77bbded01d4U, 0xbce168603ddc8c4bU, 0x3d0261173dcd38ecU,
  0x3ea436e63d3d5488U, 0x3e22a770be60c2ebU, 0x3e20544b3e4b9529U, 0x3ebf15d2bde31e39U,
  0xbd13d4513e727ecfU, 0x3dbdfee4be48c015U, 0xbe17f5b7be7295a5U, 0xbc589f12bd92c666U,
  0x3e9731463d92e1dcU, 0x3dfcb8a6bda9de23U, 0x3e2a221d3d083fccU, 0x3e8fc7353dbb4757U,
  0xbe2d1d223cdb9e21U, 0xbe4cf64cbe1c8630U, 0x3c6fffecbcf31b20U, 0xbe2e1eb0bdfb0e97U,
  0xbdc7b0b9be3d33a0U, 0xbda77ee0be383da9U, 0xbe7a99373d98e50cU, 0x3da5aa1ebd31c768U,
  0xbe00b285bd6f5ee6U, 0xbdccd5f4be460fa6U, 0x3e34d907be3eba29U, 0x3dbbf073be44a91dU,
  0xbe117f0b3da0e237U, 0xbdfccf07be4431aaU, 0xbe38360f3de85eecU, 0x3d3371a73e12b5f1U,
  0xbe50bf26bebbc69eU, 0xbd9621b9be530f1cU, 0xbd4abe8ebe3cd93eU, 0xbe3b9d20be5b3a2aU,
  0xbe35432abe3e595dU, 0xbd85b09fbe5324eaU, 0xbea4c46cbde5f94dU, 0xbe10a6ac3dbf58ffU,
  0xbe83e13bbe73ab96U, 0xbd7c5c9ebc27b011U, 0xbe34f6013d795638U, 0xbe278221be219346U,
  0x3d506a1f3d4e5460U, 0x3db3ccaebd340009U, 0xbe9b15703d80abd1U, 0xbd4bf44abe07307eU,
  0xbdb479a5bd4cf0b2U, 0x3d5d8e48bcae4197U, 0xbe01a229be3857d0U, 0xbd7e7093be67a77dU,
  0xbe58f09dbe003c4bU, 0xbd27e087be5c8352U, 0x3e1b6428bb712059U, 0x3e14fac0bd3183e8U,
  0x3e1546bcbd627c6cU, 0x3e6154203d97d26aU, 0x3e0b59b13e4fbac9U, 0xbcb2c04cbdf4cc7aU,
  0x3de5aa523dcaeb89U, 0x3d2c04ea3d07a374U, 0x3cd233b63e4df845U, 0x3e375f253db43409U,
  0x3d85ef113de3ae5eU, 0x3db8532239ab919cU, 0xbdea6919bdc50049U, 0xbda9ad953dc21752U,
  0x3e509b633d313dd0U, 0xbe09ff83bd3112b1U, 0x3e52509a3d6bcd71U, 0x3bbcb9a1bd9d05d1U,
  0xbe5099bebe124922U, 0x3dca4c51bc84eefbU, 0x3ddbc8acbbd661cbU, 0xbdac6742be297dc4U,
  0xbe15075dbc010d08U, 0xbdc8790bbe47ba3cU, 0xbeb2a59bbe0e85f2U, 0x3c80deecbdc41cd4U,
  0xbe3700c03d3da0fcU, 0xbd98be5fbe133966U, 0xbc9f903ebcd488b0U, 0xbe4e66e9bcad76b8U,
  0x3d7b404abe441134U, 0x3e1fd89fbe1ea407U, 0x3d68bac23d87534fU, 0x3db13edc3e34660bU,
  0xbc3746233da1ff61U, 0x3cbf8839be13dbeaU, 0xbd482763be5d0d84U, 0xbdc9d87abda57601U,
  0xbe6d2883be093bfcU, 0xbe0c7a72bdd4bac4U, 0xbd62e1ba3c8f61ddU, 0x3dc68cbb3cb7ae0bU,
  0x3d1eae4fbc0bf00aU, 0xbe5790b4bd2d5bafU, 0xbd3faac7bcb54be4U, 0xbe4c2abfbd901779U,
  0x3e93c30a3deed9e0U, 0x3e1595413c9a895eU, 0xbe7949163e57e489U, 0x3e5c621d3dd59b5cU,
  0x3d1815a43d87579cU, 0xbdecd3683dcb8c91U, 0xbe803a09bda9837fU, 0x3dd60162be31761fU,
  0xbd570aa1bd9ba169U, 0x3e8d82dbbebb346fU, 0xbe09773d3bddb90dU, 0x3db8748c3e0c5ee3U,
  0xbc0cd0483ede95d2U, 0xbcab53c23ccacf0fU, 0xbd896a08be2c851eU, 0x3dd8a66d3ddf9d3dU,
  0x3ef302f8bdb396e3U, 0x3e9b1a87bd808f5bU, 0x3e65c1453df3ff06U, 0x3e09d1edbdf4a362U,
  0xbe427b543ef802fcU, 0x3da9998fbd92f12dU, 0x3d2e273ebe1fd654U, 0xbd0cb781be5d6f97U,
  0x3eac3bbf3d206913U, 0xbd31d23e3d2f0dc0U, 0x3ebd71993e5d8911U, 0x3ea66913bddf8899U,
  0xbe6894183e7a1f96U, 0xbe065406be690881U, 0xbca451c5bd85a2edU, 0xbdf32343be9acf76U,
  0x3ebed3e7bd0d67faU, 0xbe0d020dbdb19ceeU, 0x3e3461623d7d51eaU, 0x3dfb1065be3af9caU,
  0xbdddf3cabdb96f0dU, 0x3cee7fa6bce4cf4bU, 0x3ddb5b6f3e703fa3U, 0xbe89889fbe12ac5fU,
  0x3e3d16603e2abf02U, 0x3de01cbabe091241U, 0xbd06279d3e111408U, 0x3de02d36becc811fU,
  0x3da4d062bea8f77aU, 0x3cf60c213df6e983U, 0x3db5e89ebd29fe12U, 0xbe3f6d7b3d110f74U,
  0xbebdfde1be4bb40aU, 0xbdd789cbbe2d8623U, 0xbdfd6222bd071889U, 0xbd21fef53d9099c4U,
  0xbd6aa6d0be229e25U, 0xbec8b6e33d64b600U, 0xbcc7a5dbbe04730cU, 0xbe4b462dbe09be75U,
  0xbe8e7bf0bd0ba891U, 0xbd1f38d0be0a0af1U, 0xbe1277f3be2cbe93U, 0x3cf036fd3df99fc4U,
  0xbdd86634bd41af57U, 0xbd8d40cd3d9c1413U, 0xbd0682ed3e30adfbU, 0xbde59e16bd673b39U,
  0xbdcd4935bc8b5154U, 0x3d1e63dabcc33f0dU, 0xbe93b27b3cd964bdU, 0x3e400279be2a07e8U,
  0xbdc168da3e818f72U, 0x3e665758bc650ceaU, 0xbcabf6303c652938U, 0xbe0147b0bb0f0e46U,
  0x3e30ec5c3e17ea96U, 0xbe58b119bc870ad4U, 0x3e808c97bda6864fU, 0x3e32123ebe2fdf1bU,
  0xbc3a4c20be1a2593U, 0xbe16f1a83d738a92U, 0x3de96e56bcc74fe7U, 0xbdebbce03b7982c9U,
  0xbdc7f8313da53a74U, 0xbdd5c8353e14cedeU, 0xbe22177bbc2cd175U, 0x3c06ebf83e73590aU,
  0xbd3fc9c8bf08703bU, 0x3c2ddfdc3c1add5eU, 0x3e2e004abe3cf6b6U, 0xbe67098ebe4a60ddU,
  0xbf603388be549493U, 0xbec445493d055a6cU, 0xbf2626f1be828150U, 0xbf382283bd59e200U,
  0xbd2840f2be9afd3fU, 0x3e1b64f9bc30835eU, 0x3cfa80cabe85428eU, 0xbddde62dbe32e22bU,
  0xbeca419bbe14ee16U, 0xbdf8f14dbce7bc98U, 0xbe07337c3cda1254U, 0xbeab3f803d05f6bdU,
  0xbcc63cb5be3659f1U, 0x3e9ea70ebdbd354bU, 0x3d8d98e2bdf1a067U, 0xbe0c5d81bdbb7985U,
  0x3e34beabbd84d5a9U, 0x3cbe3c79bcedebdeU, 0xbe1d676f3d5e5848U, 0x3e10170bbe0b18ceU,
  0x3e07eeff3e77fbbaU, 0x3d5c6801bc910766U, 0xbe543a643e7b9740U, 0x3d849b813e111934U,
  0x3ed142173e35a355U, 0x3ea955d0be024b8cU, 0x3cc20a4e3ebaeac5U, 0x3e4fba1bbe3ffa52U,
  0x3ddf1d2c3e8f7a2fU, 0xbe99ad653e4afb68U, 0xba96c8a63e5f355aU, 0xbbcfb1953e272cfcU,
  0x3ebedae93e240fcbU, 0x3e56c9043e54e3cbU, 0x3ea1804b3e4a4bd4U, 0x3ed6f1dfbd73bea5U,
  0xbdb61eca3e61df7eU, 0x3e0d0faf3d3e1da5U, 0x3e2246523e12a956U, 0x3c7dae61be8ca4e1U,
  0x3e4229d5be1fa928U, 0x3e289005bd4336c1U, 0x3e6bcf16be8f5ae3U, 0x3daad808bda948f7U,
  0xbce8ec70bdcba477U, 0x3e46eed8be17bf80U, 0xbc6e225a3da13737U, 0xbe872a463dad2f38U,
  0xbe60808cbc94096dU, 0xbc7b0b19bdb2956aU, 0x3b9958ee3db905bdU, 0x3e1212363c723f6aU,
  0x3d81fc6fbd8efe0cU, 0xbe12f7f73e1257b3U, 0xbe112de6bd8fc9cfU, 0xbd39e984bdadbdc8U,
  0xbe5a887fbc6be49cU, 0xbdc4a19d3d69657cU, 0xba81b42cbd20adf2U, 0x3da336303abe539aU,
  0xbe2bd86fbcecedc4U, 0x3dfff026bd9129abU, 0xbe0760ca3d81b3baU, 0x3dc41084be0c159bU,
  0x3c81141f3da3d41dU, 0x3e311b61bd91790eU, 0x3e010a113d157dc7U, 0xbd7680bb3d3dffb3U,
  0xbe5e6be1bde389ccU, 0xbe1075613da890fdU, 0x3e4719a33d4cc504U, 0xbe061533be49de94U,
  0x3e1a055f3c2edb37U, 0x3a730a5abdc0692eU, 0x3dda1957be829e92U, 0x3de3c4943d04e84cU,
  0x3ac8b7b8be4b3e9fU, 0x3e711c0f3e5b3fe3U, 0x3e3e70e9bd57fd4cU, 0xbe907d383e4c0bceU,
  0xbe10d4c73e26c387U, 0xbce33e1b3e6412b0U, 0xbbd90fc23db052c4U, 0x3d651224bd83e563U,
  0x3e137c35be34245bU, 0x3ea584203cf9815aU, 0x3eaa04b43d1dcfcdU, 0xbc8102d73e016f3eU,
  0xbd8e08863e12e3f5U, 0xbdf5080a3d0009b5U, 0x3d0a5b513e41fe42U, 0x3c9a1bf8bdd6ce94U,
  0xbd860cfebc4239fbU, 0x3cbb87d33d990027U, 0x3d6ff21bbe43cbc0U, 0x3dab2f7fbd0609daU,
  0x3e0baced3da242e7U, 0xbdc89e25bc6bb61dU, 0x3e032779bd0e4173U, 0x3dfd79d13de61387U,
  0xbe90480fbcc03d0aU, 0xbe104d133cd0e8a8U, 0x3e062489be767136U, 0x3da76bfcbe4d6954U,
  0x3de11a29bd727035U, 0x3c0f243abe58dc75U, 0xbe5ca3e33e60e102U, 0x3c4f6c7c3d9fc62dU,
  0xbe522d3f3e973bb3U, 0x3db861c2be8436f1U, 0xbe32e6c6bee01fafU, 0x3d2dd866bd473f36U,
  0xbc1e02fcbea7b76cU, 0xbd7fe6b2be8b9f42U, 0x3e5eceb2be2c7f87U, 0xbe1eba07bd831b13U,
  0xbd2d9055bdce9a74U, 0x3d03e10dbe0f1a41U, 0x3cf57e73be07a5f4U, 0x3b8f8c713c9419f9U,
  0xbe8fe431bd1398b6U, 0xbd668daebe318d8fU, 0xbe69181ebb36cab2U, 0xbc1bdbebbd87228dU,
  0xbe83534fbdfe37a4U, 0xbe5f98c2be5fefa6U, 0xbc3c2be3be40bfcbU, 0xbe040292be250fd8U,
  0xbd748e1cbdbb704bU, 0xbd944d9fbddee86dU, 0xbe0d30763dd536cdU, 0xbdc78c96bdf2218dU,
  0xbbd4a801bd36aecfU, 0xbe53bd9dbd8f2f92U, 0x3c93de25be07a2ddU, 0x3d912db4be26e4b5U,
  0xbcb9375dbde06c10U, 0x3d7cade7bde48f3aU, 0xbd74b819bdcb01acU, 0xbd9e0b353cf3be16U,
  0xbd5352663d768941U, 0x3c5d814cbdc03aa0U, 0x3d1dee90bd212f5fU, 0xbdcb1a093cee11cfU,
  0xbe143fbfbd0e5b39U, 0xbdc78309be4bbb07U, 0xbc9f2eeabe24ff2bU, 0x3e2015d3bd4c5b71U,
  0x3e283260be022b3eU, 0x3d7b0921bd969193U, 0xbde887483daae03eU, 0xbd988e0ebddec7a1U,
  0x3e3de0973e1c0f1cU, 0x3e67d1653d269336U, 0xbd9e69e93d443350U, 0x3e1f1142be140b9bU,
  0xbc6078883da7d4fbU, 0x3dc42a973ce37b59U, 0x3e255f64bde8ddb8U, 0xbda5ef9c3e1c44daU,
  0x3e1e1160bdcedb49U, 0x3e2047173a6e1e4cU, 0x3df6a6343e8d6cb9U, 0x3cb4d4c83b6c44a8U,
  0x3bd110d03e46ab36U, 0x3e114a2cbe053c30U, 0x3ca4a72b3d95d99aU, 0x3d21a3cb3dcf4d7fU,
  0x3e309ccf3e17b4feU, 0xbd134d67be30e189U, 0x3e9eb956be10b656U, 0x3cdb9f2abde41321U,
  0xbc92f1973e0a57e3U, 0x3e9742063c89e68bU, 0x3e2e9e2ebd012449U, 0xbeb55a703d77f725U,
  0xbe87b6e0be6eb89aU, 0xbee88ed1be557da0U, 0x3d91d491beb441aeU, 0xbe2a8d08be9ecf60U,
  0x3d753d01beb0fb02U, 0x3da54de63df178cdU, 0xbdb390c0bdb83b20U, 0xbe70a1163de2afbcU,
  0xbea0df69be57c90bU, 0x3e68f895be0fe55fU, 0xbea061c63dff5d00U, 0x3d246f143e48df72U,
  0x3c8d21da3d50d581U, 0xbdc3c45fbd4e21c8U, 0xbe8689113da00b49U, 0xbebb50a93c42389fU,
  0x3e6a819cbd8d139fU, 0xbe1a1d1dbde64fa7U, 0x3e3768b0bdc0c3eaU, 0x3dfe47c5bd2230f4U,
  0xbe321682bd9ee915U, 0x3e5f6bb7be16d840U, 0x3e12b095bda66d93U, 0x3bd95c42be8bf009U,
  0x3d8bf11f3e13291bU, 0xbcf9cae4be7bdc33U, 0x3aa797ea3bc3cac9U, 0xbc5557943dc70393U,
  0xbe76656ebe3955c6U, 0x3cd4fc84be00a9b7U, 0xbd0be17cbcc2c962U, 0xbe49b1adbe1d41a4U,
  0xbdd84a373dccd835U, 0x3d37624cbe54d0dbU, 0xbe6033b73d12399bU, 0xbcb73bbc3e4c47ceU,
  0xbdae2e7a3dcb55f2U, 0x3e0edc39be23801fU, 0x3d8bcf82be0cc8a9U, 0xbccdbef9be7a3570U,
  0x3d83d9bebd1173faU, 0x3d399bc5be17549cU, 0xbe29dbad3d927949U, 0xbd5448c13db998dcU,
  0xbe3831263d8c10e7U, 0xbe844ec63d0a4fb2U, 0xbdb9c088bbe117aaU, 0xbe503561be31b3c3U,
  0x3e36b2353da0a661U, 0x3e1ae7c4bd79cea4U, 0x3c9e55ca3d9b5e8dU, 0x3df0c7383df091a7U,
  0xbda9ce013e3e796bU, 0x3e7fad693e27b592U, 0xbe4444d13cff7280U, 0xbe169696bd41ea91U,
  0x3e24ef5c3db0b674U, 0xbe87e0a9bdb99f0aU, 0x3dc592a1be663d22U, 0x3d9d92b73ebe6848U,
  0xbec8c010be1a3ee4U, 0xbd134afbbe0642f0U, 0xbd358019bd2dd603U, 0xbe351039be146cc3U,
  0x3dd2b6debed8e814U, 0xbe17b98cbd85b960U, 0xbe13696c3df5718cU, 0x3e4ba78abe5d98faU,
  0xbe0df6afbe202539U, 0xbd74be6cbe2c422eU, 0xbe0f2e62be910dc1U, 0xbe0a9171bed7cda2U,
  0xbf07a105be98d2adU, 0xbe2462f8bf1563e0U, 0xbe0d19c23e052288U, 0x3d07082cbe30eac0U,
  0x3d1c57e03e16b126U, 0x3dc11cec3d0ef56fU, 0x3e4913223e2d4caaU, 0xbbee0eaabd735c5dU,
  0x3e0572053dbbc3afU, 0x3d80a223beb69a17U, 0x3d9573ca3d37f90dU, 0xbc84511f3d50287cU,
  0x393abe0c3d68de58U, 0x3f0a09ef3d6e383bU, 0x3e05e6693e649dd3U, 0x3e10bb823e3b1f9bU,
  0xbe83fd7f3e3bed72U, 0x3d734afebe195d7dU, 0x3ea46766bd160341U, 0xbddac6823da49786U,
  0xbd885fe5bd288fb1U, 0x3e00b065bdb28cd5U, 0x3eec96b1be8bf3ceU, 0x3e6a9603be035ff9U,
  0xbd0e4e4cbe118c38U, 0x3e1ccf9f3dcce630U, 0xbe50ba92bd08602dU, 0xbe3ce0033ec6bd1cU,
  0x3d9ce1b03d71b400U, 0xbe13b3c0bd388921U, 0xbd9add3bbd73cf11U, 0xbe0226443d851920U,
  0x3daa554b3d82a3e2U, 0xbd02423fbd307c69U, 0x3dc6de63bd68304eU, 0x3c86e72ebe0f535eU,
  0xbca3b15e3e173f8cU, 0x3d4f2c4f3dbf161cU, 0x3c9e5817bdde2916U, 0xbe23522dbe338d50U,
  0x3e2cb46f3db37fd0U, 0x3cecdf7cbd9f2d2dU, 0xbdfbd6bcbd6fc2aeU, 0x3dd63428be39f6f2U,
  0xbdf50dd3bde5353aU, 0x3db124723db02218U, 0x3cda8c8fbe1a3069U, 0xbe6cc0c0bd59c3f6U,
  0x3d9e944bbdba3a66U, 0xbd94af51be554661U, 0x3e467fc1bd156529U, 0x3dc9156f3d1d89d2U,
  0x3bac7e04bceae477U, 0x3e6cb7a2be21b367U, 0x3e8ec033bda5d623U, 0x3dd6b4ea3c09da08U,
  0xbdac59afbdee0c05U, 0xbd9e6c05be732a86U, 0x3c5681d1be29afccU, 0x3dad279f3d22bafaU,
  0xbe8ff2653d379c21U, 0x3d78447dbe0f6277U, 0x3e2360b53cf282c2U, 0x3e382585bd47440aU,
  0x3e702d503e143804U, 0x3e55eb5bbdfa1349U, 0xbd0cb0b03e739586U, 0x3dc271a63e57712cU,
  0x3ea21d023e1e761fU, 0x3ec753363d22a845U, 0x3e2fd7993d97474bU, 0xbd830c133e723653U,
  0x3bae1c713e86e2bdU, 0xbdca1e563e021a66U, 0x3dfea5543d2003d5U, 0xbd8c7f153e0148c4U,
  0x3e1d19943e585f1fU, 0x3e8006663d2ba07cU, 0x3e90c4d0be8c5382U, 0xbe0a1c04bde65c80U,
  0x3e398d41bd64fdabU, 0x3e1870413e52f4f2U, 0x3d615ff33e1c6d7aU, 0xbdaa1f8d3e871f17U,
  0xbeeb7b1dbd3ea6d4U, 0xbee4eb0b3d6379a0U, 0x3dd24c92becb1423U, 0x3da3ea8abd8ac9b9U,
  0xbe37ca07be91040aU, 0x3d024cc3bcdebb83U, 0xbdb3918a3cdaba8eU, 0x3d6a902f3c33e704U,
  0xbe926ba1be3b7a69U, 0xbe83c9a4be6c1329U, 0xbe99dbd9beea2045U, 0xbd72dddabe9b066aU,
  0xbe11ee1ebe622fa8U, 0xbddfa8bebe934bb5U, 0xbda8b118be768d56U, 0xbc269cafbdf8e715U,
  0x39988070be698a05U, 0x3d4c2d513b8d49cfU, 0xbdb297adbe174e4dU, 0x3c6b790a3c9fe579U,
  0xbee83b28be426085U, 0x3d472d3fbe5becd7U, 0xbea64e203cadd0c6U, 0xbc86ade43c9a738fU,
  0xbe86fd363c701bd1U, 0xbed69dcabe625d1aU, 0xbdc9d09e3d7d9e6bU, 0xbe7435c8be7f7ed8U,
  0xbddb1340be12fe08U, 0x3de2d323be9e3e04U, 0xbe0f8ccd3ddbd46eU, 0x3e615db0be185a12U,
  0x3c97d8843dbece87U, 0x3e568d3b3e5fc97dU, 0xbe44ad083e467380U, 0xbea6ab80be035388U,
  0x3e4ece513e11d693U, 0x3cd02b17be81c1ceU, 0x3dc298ed3e06a0ebU, 0x3e2d3d6cbe10e441U,
  0x3e0e678e3d3af31eU, 0x3e772fff3d57e980U, 0xbc786bef3e0fd60fU, 0xbe0f03603e4d6ea9U,
  0xbe02f096bd10e2eeU, 0xbe15bafa3e4a2bb5U, 0x3e22ce02be7838fbU, 0x3ccb86173cca3afcU,
  0xbd8ab29bbe30fc18U, 0x3e010cb8bdfcbbdcU, 0x3d0d6fcfbe4c7201U, 0xbe44e17a3e292e7eU,
  0xbe7e71903d9daa94U, 0x39b4b1b93e4b9f71U, 0x3dd5c6f93cb577a3U, 0x3e87a0c33d4dd363U,
  0xbe89bbf53cfcfb73U, 0x3dad9f08be8f73e3U, 0x3e8452f8bf11c0dcU, 0xbe09e6dabd26d92fU,
  0xbefecd20be8f309aU, 0xbc8b7426bde25db4U, 0xbf1585d7bc7b86aaU, 0xbeaafe853de92a09U,
  0xbe4f910fbded8fe0U, 0x3dd98619be30cc84U, 0xbbe8fbc8be1a1f10U, 0xbea03b88be6f8647U,
  0xbea3a11dbe097aecU, 0xbe560788bddd8200U, 0xbe91088abf08be0dU, 0xbdef336ebda93bc4U,
  0xbe2773c8beb91407U, 0x3dad80073d7289b5U, 0x3e833902bdd5e731U, 0xbe1444823dd15d83U,
  0xbed60dcdbdb655e0U, 0x3d95b77e3d872a2eU, 0xbee36dd5bc9d486aU, 0xbe69c6b83e41f74fU,
  0xbe3bf04c3c9ad35fU, 0xbd32b8ee3bb293daU, 0xbe3e1d3cbdc7e7b6U, 0x3d99164fbd7dbeb8U,
  0x3cb8ebb9bd78ed1eU, 0xbd9a4c82bd0bbd82U, 0x3de9dc25be3ac846U, 0x3d9906183d7a6625U,
  0x3d78ad7abe1fe3c3U, 0x3c7646273e2bafd0U, 0x3dd9b1dd3c163769U, 0x3e08047d3d7cc87dU,
  0xbd686ed93d5f955fU, 0x3e093bccbdbf64cbU, 0x3db2d3fb3e6b7c77U, 0x3e913ff73df4ddbfU,
  0x3e4ecdee3e0e1c07U, 0xbf1ea2823e692729U, 0xbd057d423e55033eU, 0xbe1e4d613e455693U,
  0x3ed48b423e209ac7U, 0x3eb0a5273d9ebdd3U, 0x3ca1d9e53da34dd8U, 0x3e8e6331bec57bfdU,
  0x3d4e08c83dd66d9fU, 0xbe2dfa08be41c868U, 0x3c1a7540bdb29f4bU, 0xbda37df2be1038c5U,
  0x3e16d5be3d83080fU, 0xbcce14d63cb8d0c7U, 0x3e1c3ca4be22a37aU, 0xbcd835e6bc807ceeU,
  0xbe71ca27bdc1ed10U, 0x3bb23a31be059f22U, 0xbe5490fa3d39a8feU, 0xbdd7e594be89a745U,
  0x3ddf9d053d5bc566U, 0x3e5cca593c3c5047U, 0xbc2c560c3dfb4f8fU, 0x3e20242bbc382c4eU,
  0x3d26874f3e84eb7aU, 0xbb9c49f93e38a29dU, 0xbe43c0173de92ab1U, 0xbe8bf14a3df53baaU,
  0x3e31aaec3c91cbf2U, 0x3dd53368bdbac8a5U, 0x3e470fa2bea1ce20U, 0xbbfdaf00bdbf5371U,
  0x3d88f8bb3da38bd8U, 0x3db7acb8be0a4e31U, 0x3e0e2d4fbe4e1d46U, 0xbe9dce80bd10b74fU,
  0xbe2fff3fbe6b7dc8U, 0xbcae8193bdf42246U, 0xbe45e2023e7f6ab6U, 0xbc935d90be031cecU,
  0xbdc675173e6efcf3U, 0xbe72b281bbfe63e1U, 0xbe56c16cbd4bdb48U, 0xbcc0b665be68be32U,
  0x3e7675c8be0d11cdU, 0xbd5815e0bde6d5afU, 0x3e12ddbdbe2ae35bU, 0x3dab2f4a3dbae199U,
  0xbde3421cbd16de08U, 0xbe05577abce0d2adU, 0x3bbda3b7bd7ee92aU, 0xbee4e836bc8f265dU,
  0xbd1c618e3e0ac348U, 0xbeb42a643d04c116U, 0xbc7d945ebe3f1a56U, 0xbd8b6740bde12875U,
  0x3dcd3b2bbe52769dU, 0xbe9111a63e18bfabU, 0xbd91f652bd5b03e1U, 0x3dcc37843e3404fcU,
  0xbc894a163e38fcfaU, 0xbd08072b3cab9d9bU, 0xbeb4b6ccbe693d5bU, 0xbe86c1dfbe37ad67U,
  0xbd18fe2ebd1b7066U, 0xbeea1f01bc280569U, 0xbe1702733e15489fU, 0x3db76e463c5cffeeU,
  0xbe04d9dbbdad6c59U, 0xbec783623d6a8e73U, 0xbec055e3be9478a9U, 0xbec0e57b3dd5ba26U,
  0x3e1d3cefbe89e327U, 0xbe8b3b213db18ee9U, 0xbd76bcc3bd846570U, 0x3e3e613c3cd3c656U,
  0xbd5ebf0f3e63c6b0U, 0xbe3513e7bd9ca2efU, 0xbe8a5649bb405576U, 0xbe76d121be883a2eU,
  0x3e12442fbd7eef62U, 0xbe0149483e270592U, 0x3d590d513e24d911U, 0x3c757c213e2d32eeU,
  0xbcae25bb3e378620U, 0xbc8963d93e736b32U, 0x3e50978eb94a116aU, 0x3e3c822f3e9984caU,
  0xbe4160da3ce94238U, 0x3ccfd94cbe67d8eaU, 0x3d74e8a53ccc8423U, 0xbbcfaca53d1b437bU,
  0xbda1238fbd1539dfU, 0xbc5fc861be464125U, 0xbd92955fbc94610aU, 0x3d0b3ae13e604d76U,
  0xbd3e1eabbca7e565U, 0x3ed66e3bbeb407a0U, 0x3e83bef8bd986097U, 0x3dd4c08ebe203705U,
  0x3e5cd655bdcf4b5aU, 0xbd1fd6e0be88e550U, 0x3e891834be1f3051U, 0x3d46873c3e60dd0eU,
  0xbe33aaedbec30994U, 0x3d67a6fb3d8bb1a2U, 0x3e24aa853d2cbb82U, 0x3e2a8506be51ca0eU,
  0xbe30e6b1bcda6a61U, 0x3e16777cbe2fb412U, 0xbeaae9e13e59a29bU, 0xbe2038343d63a175U,
  0x3d7b09ca3e6d6a09U, 0xbe3655fcbea3db0eU, 0xbe665e68bddac8a2U, 0x3e0727cabea65c04U,
  0x3eccf0a8bce80035U, 0x3e1edf8fbe34dbdeU, 0x3e891b8d3de0b8e6U, 0x3cad540d3d930a86U,
  0xbe229fd93e66afb4U, 0xbde3db673c72bbdbU, 0xbe976dc5be4770c0U, 0x3b37a08cbe92d9c6U,
  0x3e24fb033d363260U, 0x3ce33b07be981700U, 0x3eaa8f21be1be504U, 0xbcb104833cb70457U,
  0xbcb62488bcdb5f19U, 0x3da870733e2f6f11U, 0x3b30e9c0bd1807f4U, 0x3e0cb3dbbd5da2d2U,
  0xbd98f9613e30432eU, 0x3e14a2493e14647aU, 0xbdea75183e8fe8aaU, 0x3d3317273e8617daU,
  0x3e7ef95a3e998267U, 0x3e23882a3b5b8f2aU, 0xbebdf39cbddb0e4fU, 0x3e5c69a0be10f5c0U,
  0x3eed50473d18c4f9U, 0x3e3c8909be364d16U, 0x3e2bc38bbc7aaad5U, 0x3edd4116bb643d46U,
  0x3deeac443e9b9635U, 0x3e6098fcbdcace8eU, 0xbde637f6be1fa17dU, 0x3d856120bdbadaebU,
  0x3e4ee26dbd206fc5U, 0x3e38c5d0bd1783c3U, 0x3e4abfff3e83df8cU, 0x3f10cb83be00a47bU,
  0xbd25879b3e5c8989U, 0xbdd91eb03d197e4bU, 0xbdbf986bbd7792e8U, 0xbd3d6ee0be4d8188U,
  0x3e2cfbc4be6c1dbcU, 0xbdb4a0dabe4209c0U, 0x3e5edf65bc7f5769U, 0x3e19d5263cd6d411U,
  0x3db85eb9be0f852dU, 0xbe50a4cabe53ebd6U, 0xbdb49991bcab3dd7U, 0xbe0d48c1bd7e52f5U,
  0x3ded1660be39f4cdU, 0xbd34d2dabe1539cbU, 0xbe3117ee3c5dd712U, 0x3d5daeddbe8cba8aU,
  0x3ddde2b33e358829U, 0x3e0fcb093e7fa370U, 0x3e01e1e73dd248edU, 0x3ea875dd3e8c62d2U,
  0x3d863e813e63f6c2U, 0x3dfcac993daf9f83U, 0x3dbd6b673e9efab7U, 0xbd84f9023d6e5d8eU,
  0x3dad19683e85ee05U, 0x3e33796c3def10ffU, 0x3e8752b2beabd3c9U, 0x3d7f26093b62bc76U,
  0x3e3148673d50855dU, 0x3e5a12f9bd094820U, 0x3e2f9224bbd9896eU, 0x3e5c47ef3e66c6e0U,
  0xbe9ac3b83e876647U, 0xbe7011a93d7ae42eU, 0xbc85b2dfbd999952U, 0xbdcc2cffbe04a2f7U,
  0x3e4e7ff8bdfc0ad4U, 0xbda20578bdc88e38U, 0x3e8940723eab766eU, 0x3e8987b83e25394eU,
  0xbd8ce20b3d99c2abU, 0xbc4c9c21bee34607U, 0xbef15f21becc4d4fU, 0xbe41db52bec913c7U,
  0xbd5f0a48becb347dU, 0xbe8489d6bea22b7bU, 0xbdd0da2bbde80982U, 0x3ced429cbe7ea1a8U,
  0xbd19411ebe80de5cU, 0xbe85e3af3df91aaaU, 0x3e0b727a3e068478U, 0xbe5b21ddbe090962U,
  0xbdc9223cbe467415U, 0xbd9a6f0a3bb39e57U, 0xbd2e39293e5874e7U, 0xbc838bf63c8b7d7cU,
  0xbe19913ebdf7aa92U, 0x3c3baedbbe71d437U, 0xbe12d266bcfe9d44U, 0xbe3d5271beb829d3U,
  0xbdafc49cbbca8ae7U, 0xbd8c75b5bea9e3f8U, 0xbe4ed9f9be901320U, 0xbe4216453e1f6b54U,
  0xbd9e8aacbdd21e05U, 0xbe1ddff8be56a6e7U, 0xbd58ef41be1c7b44U, 0x3da5a4b2be9a42f1U,
  0xbe795f77be231e18U, 0xbd8066c0bea5b327U, 0xbd4193963c859536U, 0x3d38ec70bdba92d2U,
  0xbe27a0a93e7d8708U, 0xbee239e4be3ea24aU, 0x3c858f573e0cdd97U, 0xbe51edb4be1f9355U,
  0x3e1ed9bc3e0a8cb8U, 0x3dd64a753cc63b4aU, 0x3dddd071bdd16ce8U, 0xbd972d9b3c819247U,
  0xbcdd2fc7bdaa9b80U, 0xbddfd3c9bc07407eU, 0xbdda05d63d78a162U, 0xbe4a8496be05640eU,
  0x3e44915a3e2e93ddU, 0x3e59e664bdf630a3U, 0xbd9b0db63cc852bbU, 0x3d9bcdb8be8f1dddU,
  0x3d411d4f3e2c2ae8U, 0x3df01db93de227faU, 0x3dd3b495bd1080daU, 0xbee8df9e3df1e931U,
  0x3e112a3cbd136f12U, 0xbe26ce833e117118U, 0x3d1d83c0be216324U, 0xbd925555be641a5aU,
  0x3e0a234abe12ebd0U, 0x3ea90fab3d3e83ceU, 0x3e7db95e3d8f43beU, 0xbe4827a3bb7f13f2U,
  0xbe63bebd3cab2889U, 0xbe0de22d3e7c52d3U, 0xbe3c8293bd23462bU, 0xbee434be3e7aa725U,
  0xbdf862c5be27d644U, 0x3e2314843e638052U, 0x3de51e7fbd95c5deU, 0x3d241df23d3ef3dfU,
  0xbe267bd8be4a447fU, 0x3b57bcbe3debc1a6U, 0xbeca84cdb8827458U, 0x3e38cd373e8b2969U,
  0x3c390001bbd56160U, 0xbf183248bd934df8U, 0xbec557acbd352ebcU, 0x3d490092be0be82aU,
  0xbe86b8d8bdf74851U, 0xbcced3b0bc04c4c8U, 0xbecdc7103d80cd58U, 0xbd9565b4bcdec6b4U,
  0x3cee47d3be68f898U, 0xbe446131bdd46fa0U, 0xbddf2f3c3cdc13a4U, 0x3d37fb4b3da12560U,
  0xbe2842623c84aca6U, 0xbe0b86d13c11deb8U, 0x3d4373f1bcc94190U, 0xbe08b3333dfc60e8U,
  0xbdb35c593e10c546U, 0x3d38bed23da64d10U, 0xbe192d8abe419e68U, 0x3cbbde11bc125be1U,
  0xbd08640abbd35b0cU, 0xbdbdc2e3bd843605U, 0x3da0e737be82e75bU, 0xbe7f08723dc2706aU,
  0x3caec7583ebba243U, 0x3ea372013e236d10U, 0xbeee6e2a3e04f4a6U, 0x3e324dcc3d117c6bU,
  0x3f0848473e11f602U, 0x3e5df2b6be4583a5U, 0x3ea4de9c3de96ec0U, 0x3e974bcbbadd3fc0U,
  0x3de813393d79f2adU, 0x3c0c0901bc486432U, 0xbe78cd913d294255U, 0x3d9ba828be4aabc9U,
  0x3e7a47b3be65654aU, 0xbd88d892be6ea229U, 0x3e23fd7dbe04040eU, 0x3e02ef66bd1bb91bU,
  0x3d43aa6bbe961ecbU, 0xbd3e3dc7be0af73aU, 0xbb1626583db41991U, 0xbd830743be801c99U,
  0xbe82104b3b9700fdU, 0x3cd1bf8dbb5a6121U, 0xbe1870243e46cfe1U, 0xbcbab78a3e150b20U,
  0x3be76e093e4ea0dfU, 0x3dd6c2be3e23b73dU, 0xbeb4bc41bdc454b7U, 0xba11c3b8be38a092U,
  0x3d8f14a83e0cbee8U, 0xbc51465fbe891915U, 0x3e2220d1bd789f70U, 0xbd377bd7bb8b3caeU,
  0x3d695da03e088c71U, 0x3d77fb0bbd96ac1fU, 0x3d0318c5bdba98eaU, 0xbe19f6bb3b6181a1U,
  0x3ebba5ebbe402260U, 0xbc98839a3e2028b9U, 0xbd095e973e6f657cU, 0x3e90106bbdb4fbaeU,
  0x3c9abf563ecd4c0dU, 0xbd9504bc3e46dfe0U, 0xbe1f4a0bbcce2a6fU, 0x3d7bdf8fbd4ea40bU,
  0x3dba0bfabd8138b9U, 0x3cefc308bdf4eb65U, 0x3e95bcf33da877e2U, 0x3e68956ebd863b02U,
  0x3e7ff7133e057ec5U, 0x3cddeef03b8329fdU, 0xbe9381513e81051dU, 0x3dab0b6e3ddc1e38U,
  0x3df82f253e00d82fU, 0xbd09fed0bda05c6eU, 0x3e525f9abe548f7aU, 0xbdb0f88fbd50a5ceU,
  0x3e14e5eabe8ad95cU, 0x3e8761493d9df6c4U, 0x3e720a00be79238dU, 0xbd95033c3d958368U,
  0xbeb91de03de98856U, 0x3cbf58423d7cd636U, 0xbc938d923d0fd78bU, 0xbed31e56bb808f88U,
  0xbd874279bed83ad7U, 0xbd9cf6363d829673U, 0xbd70e582bee24881U, 0xbc3ae1e2bc019ccaU,
  0xbebb282cbe443238U, 0xbdbe02183d7b63c8U, 0xbe6e13af3bcf122eU, 0xbe4552843d788ba1U,
  0xbf2c34d03ca8c121U, 0xbeb21e4cbf0a4cdaU, 0xbeaa0bb5bf4b95c8U, 0x3da557eabef91cd0U,
  0xbdb2540cbefcc01dU, 0x3d5f369ebd9bb17dU, 0xbcc426eebd48a054U, 0x3cda599dbe1e9410U,
  0xbdce12493db5fbb2U, 0x3ea855d73c835ad9U, 0x3d765c20bc8358dcU, 0x3db572b63b18fba3U,
  0xbe07681e3d062283U, 0x3d416721be7718f0U, 0xbe2cc700bc6e7a12U, 0xbe961a363dc50909U,
  0x3b88f9c43d05d45cU, 0xbeb6eb6dbd8b356eU, 0xbe2bd07a3dcb8d99U, 0x3dfd0b663d794a77U,
  0xbd9e1721bda8e14dU, 0xbe1e9991bd1cc2d0U, 0x3dc131c6beb42f6fU, 0xbe9ec2c63e4c1e85U,
  0xbd17026dbe72b1e1U, 0xbdbbebad3ddf1c8bU, 0xbe503db3bde95402U, 0xbcb3c2c63e09caecU,
  0xbc20980b3e0c5774U, 0x3d4abd813e596bbcU, 0xbe8434523dd2bc8fU, 0xbd3b48593caed4b9U,
  0x3db5d17bbdcd2fcaU, 0x3e9f2eadbe99948aU, 0xbcae8d7f3d423bfeU, 0xbe3591b2be31a8c0U,
  0x3d16733ebe64e38cU, 0xbd2effcc3d463d50U, 0x3de1deeebd0a4126U, 0x3e7d580e3cca33f6U,
  0x3bce94b73e15fd2fU, 0xbda8f9ccbdc0e898U, 0x3cdd71d5be1ee5adU, 0x3ddc18c9be902f3eU,
  0x3eb2a935bdc475f9U, 0x3e3ba1e8bea20162U, 0x3e4167803e9fbe09U, 0x3e55ae123dd766e4U,
  0x3c545f213bdcb6b7U, 0xbdc21ad5bd2e41e8U, 0x3c3e43e73d399466U, 0x3d0347efbe0f0165U,
  0xbd02d6833cf11826U, 0x3cf086a93af25d8bU, 0xbdc421323c9ffa13U, 0xbd6a8fde3d56d090U,
  0x3cee24c63d1ec5a2U, 0xbd8c22353caeafcbU, 0x3c7b4c043d8d9288U, 0xbca0cc803d027eaeU,
  0xbdf03c6abe0d2520U, 0x3d5dcda2be7c66f7U, 0xbe89bfbabd9965a6U, 0xbdc642a6be776975U,
  0x3dbae15d3bf72441U, 0x3d74f0943e05ea12U, 0x3d0f1dd73c7ca4caU, 0xbd2e664ebe478e04U,
  0xbc33adecbdd131eeU, 0x3e25bb093e4968c0U, 0x3e005e893d3e61b1U, 0x3dc99dfabddaebfdU,
  0xbe260d79bd8b0654U, 0x3de2d76cbe4ef280U, 0x3e233d75bdea2cd9U, 0xbe1ab0ebbe73daebU,
  0xbe09c0613c2f723bU, 0x3dbc2dbbbd1a422aU, 0xbdc0cff9bcb46f75U, 0xbe12ac2f3d76c3aeU,
  0xbce3fe673e3bff83U, 0x3d8ea26a3be6842fU, 0x3d10d9c23e334496U, 0xbeafa936bdf3f669U,
  0xbdce7f87be0944fcU, 0x3d1717153d87ebf9U, 0x3e01415cbdfda0b0U, 0xbc8c5f4dbe5c9cfaU,
  0xbf1b9444bd8089efU, 0x3e45a330bdf74261U, 0x3e126fd63dbf83c8U, 0xbe031fd6bdad3166U,
  0xbba264aabdccfec2U, 0x3ca5918a3e2486ffU, 0xbe2f244d3e4f8d8aU, 0xbe0736603d6e53ceU,
  0xbe412535bdd095baU, 0xbe63c776be316469U, 0xbe60f25b3e58f3f6U, 0x3c9d6745bd43d8b8U,
  0xbe2e0ccf3e1dba4eU, 0xbeb2a8e1bdf4e6c7U, 0x3ce2d5dbbd2ecf81U, 0xbcda6b85bd1ad75eU,
  0xbf19bef8be19c356U, 0x3e14980dbe3cb521U, 0xbe8759a43d6cd522U, 0xbd8125dd3dac5f08U,
  0xbd022110bc924da5U, 0xbe19c5d13e12544dU, 0x38af15bc3d38ad3cU, 0xbd2d18363dfb7c2fU,
  0xbce74e6bbdf6b2ccU, 0xbe9e52613b82d3ecU, 0xbd97e9943e80107bU, 0x3e28b465bd08dc65U,
  0x3dd80b2e3dc8de90U, 0xbe10a7203e1c7e80U, 0x3c8b99f0baec3cd3U, 0x3d0852aa3cf09e1fU,
  0x3e63c941be297756U, 0x3e62bd36bd7c0180U, 0xbdfe7dd9bd3d0a53U, 0xbeab7f843e161258U,
  0x3d779f27be52bb4fU, 0xbe0f3f9e3e584980U, 0xbd91cd36bda86eaaU, 0xbc849c6c3d87e1b9U,
  0xbcdedd87bc45b79cU, 0x3e35f15d3d3ae571U, 0xbd3dc6d73e94590fU, 0xbd446bd0bc90da46U,
  0xba13ef6a3e017a76U, 0xbdb05c9ebe0291d2U, 0x3d87972abe5fe624U, 0x3e0c14cb3db655c3U,
  0x3dc1d302be417d28U, 0x3e2a75e63e0d100fU, 0x3dabbc9abc03a70dU, 0xbd96f015bca9e0e5U,
  0xbc0128f6bd25912aU, 0xbe7ffe6e3cadc94cU, 0x3d2dd80d3dcdbed6U, 0xbd8d03a13aa2d940U,
  0xbeaa84d1bd8392ceU, 0x3dd97e58be791f4fU, 0x3d310267be2730d7U, 0x3eddaf7b3df28ee1U,
  0x3e1517613dffe766U, 0xbe975fadbe5fdff5U, 0xbe2919bdbdc661daU, 0xbde050473db2acb6U,
  0x3db443e53cbab750U, 0xbcc69ff3bdc132f6U, 0xbf029f803c6481b0U, 0xbeb068633e5daddeU,
  0x3e61eb933db51616U, 0xbe01cc663da6fb54U, 0x3e8317033dc470e7U, 0x3e2a33f93e7e3835U,
  0xbe3e15ddbe2e60a0U, 0x3d466c22bdf5e91aU, 0xbd9f0c84be3e540eU, 0x3e9d0b953dced767U,
  0x3e2cda373d989f99U, 0xbec48bfebc4ef870U, 0xbe16c903bcd89a34U, 0x3dfd9e543e60a76fU,
  0x3e84fd9b3bad6f35U, 0xbbb4408cbd202170U, 0xbe8bb8883ef8d130U, 0xbe0f8e8b3e68054bU,
  0x3e45f314bcb031e8U, 0xbe185b8a395c3efcU, 0x3d6abe873d89777fU, 0x3d9bcc5c3e2b3bcfU,
  0xbed44682be53c26aU, 0x3cb7752fbebd3660U, 0x3bcc7da3be10f0dbU, 0xbda28b003dba911bU,
  0x3e01a7083e6556fdU, 0xbf0993ab3e11e79dU, 0x3da5970abda694c4U, 0x3e50c6dbbe5f6f2dU,
  0x3ebc7884bedb073dU, 0x3deb451ebe9e75ecU, 0xbf1e41f03f0800a5U, 0xbeba5a1a3e462939U,
  0x3e528127bd87dad1U, 0xbec349423e829398U, 0x3e5cfe0dbcb4c5fdU, 0x3dc1284b3e95aa2cU,
  0xbefb4653bdf6eebcU, 0xbe5080ccbeae5f9fU, 0x3e000decbc8ff69aU, 0x3d1bd500bdd1ac78U,
  0x3e1164a53e360c8bU, 0xbf30483bbea384afU, 0x3da0c547be72a8b0U, 0x3eb27268be8323e7U,
  0xbe2e1d1bbeb8161aU, 0x3e63d844be2bc91bU, 0xbf2b430e3f2c9adeU, 0xbec415f1bd63dc53U,
  0x3dbce758bd9b3153U, 0xbf15d74a3e3c2235U, 0x3e3731bb3e630155U, 0xba30c7f63e61bd93U,
  0xbf150837bed200b4U, 0xbe9c97cbbee1f589U, 0xbced998a3da92906U, 0xbed52b24be3c99c3U,
  0xbde9d1293dbb5001U, 0xbf3fe9aabe12eaf4U, 0x3d3c37c0bea25937U, 0x3cc8637abeafc92bU,
  0xbf2357a7be9b33acU, 0x3e1c420cbf059461U, 0xbf2478953f8101f0U, 0xbf0a61c43e1feb4fU,
  0xbd48619fbdfb3fe0U, 0xbec64cddbd9beb06U, 0x3a1b7c333e198186U, 0xbe8246d03e94420dU,
  0xbe2981cf3cad03eeU, 0xbde1b4f0be3b0147U, 0xbc74ca9c3d1583abU, 0xbdefe0a6bd48d79bU,
  0x3e354d6c3c17f782U, 0xbe7ef78fbd78e3cdU, 0xbdde5161bcfc975fU, 0xbe095f08be2587d0U,
  0xbeaf0ff3bd761aabU, 0xbc9ad6c2bdd74082U, 0xbe83aa33be8915edU, 0x3dda5f01bd87d9a5U,
  0x3db26c643d5ef8c1U, 0xbdeb3fa3be0e914fU, 0xbd68635dbd13bd67U, 0x3d187ac3bdd433a4U,
  0xbdc16d96bdb720d7U, 0xbe03e10fbdf9fdd9U, 0x3d575037bd25fd6dU, 0xbe188a3c3db83abbU,
  0xbda93fc23c7b3d44U, 0xbdbfefcbbc8cc244U, 0xbdc8a513bbc06ac1U, 0xbdb3aaeabdfbf8edU,
  0xbdd80f81bdda3997U, 0xbde3bd56bc5e7db4U, 0xbde57f713df7ca26U, 0x3d8a13293c27051eU,
  0xbd3d49e9be214eeeU, 0x3c23f25abe3645bbU, 0xbd5500f53d992153U, 0xbbdfeea3bdfea818U,
  0xbe2688d4bdd6553dU, 0x3d47baedbd629ca1U, 0x3e2a960b3d10c9efU, 0xbda7cc973c09bfb6U,
  0xbc76268fbe017c98U, 0xbe4f03c6bd062745U, 0x3e18732a3d26c148U, 0xbd558f01be4be14eU,
  0x3e0828c1bdc4730eU, 0x3e0bd4eabe24c525U, 0xbd36eebbbe3228ccU, 0xbd8b34a33d06c058U,
  0xbe136bd43b80db90U, 0xbded2e793d0000d9U, 0xbcb09a4ebddaab79U, 0xbd89979fbe139e63U,
  0xbe290e51be42480bU, 0xbe4bc8b7be4ddd1fU, 0x3d59abcebd8251d7U, 0xbe555c37be1191ceU,
  0xbd3168b7be58cb7eU, 0xbe1f6ec6bbd34725U, 0x3e05d52bbdb174f4U, 0xbd5fef81be5de88fU,
  0x3e218107bea26682U, 0x3d68d3c2be3f271bU, 0xbe4fc0e6be4a8099U, 0xbdfd18dd3ca5672dU,
  0xbe012190bcbb95cfU, 0x3a5ee1e23e11ececU, 0x3d8620f8bc8c8c1cU, 0xbe109b25bde7aa73U,
  0xbdaf2077be17142cU, 0x3d55e37ebc941b29U, 0x3dc80b44be413589U, 0xbd41d55bbe1d1aa2U,
  0xbd9784eb3b1e9f40U, 0x3d1facb2bc68d320U, 0x3dbe85e6bd977a32U, 0xbddd41773d113a02U,
  0xbc14ee2b3e10de24U, 0x3d8375343d3cb24aU, 0x3dc12e4ebca521e2U, 0xbb262115bdcf8519U,
  0xbde3f43f3d9e73a7U, 0x3dc50da1bb09ea29U, 0xbd1915653cf76c89U, 0xbc829967be0a3b35U,
  0xbdf351fb3dbbeb68U, 0xbe23d2aebe53ed41U, 0x3d3c7a223e689e04U, 0xbd141431be00f40bU,
  0xbdb785d7bd311026U, 0xbe7ba959bdb62903U, 0x3cd6abdc3dabdb0eU, 0xbb7f7b8e3dc65623U,
  0xbe0dde6b3e1300d9U, 0xbe3a1528bded22c4U, 0xbd62eca43c61650aU, 0xbd9827ec3e08d587U,
  0xbd896675bd6955ceU, 0xbd214e33be83a3b7U, 0xbe27d158bc9d5a89U, 0xbe188e26be81c056U,
  0x3d94d0ccbd2aba02U, 0x3dc6e570bde54270U, 0x3ca26b133c5d7a26U, 0xbd50952cbd964ed3U,
  0xbc108a9e3d49ebc2U, 0x3cf413183db21c75U, 0x3b9b0746bd7680f6U, 0xbd9c967bbd7b359cU,
  0xbd1423813de9a297U, 0xbe47280c3d948bd7U, 0x3d9d332abc3b0d68U, 0xbccd87883df56c42U,
  0xbe74bcda3d58465aU, 0x3d9a059abe99ac12U, 0xbe1fead0be8ff891U, 0x3d07ca2cbe8cd4ceU,
  0x3b8b6a90bd32bd79U, 0x3e19b8d8bcbcd728U, 0xbd57795b3dfec154U, 0xbc8ca4313d3fa518U,
  0xbc991d72bca0fb7eU, 0x3dec5a6c3df5fad7U, 0xbd00d5df3decd953U, 0xbd2cbb433da63667U,
  0xbdc3556abc8bf78dU, 0xbdf65c4cbc8f5727U, 0xbc62cb02bd3eaf9fU, 0x3d8dfabf3e1fe6acU,
  0xbe2bb70cbbc9d466U, 0x3e3cbe17bdbb660fU, 0x3d75a799be22f0feU, 0xbd5a411ebdacdcd7U,
  0x3d87c402bd873e7eU, 0x3d2796a23e01901fU, 0x3d99438e3d2c7c57U, 0xbc9a5dbbbdc3787eU,
  0x3c41442e3e0435c8U, 0x3e22ecc73c823155U, 0xbb2ef497bcbbcffdU, 0xbe1d86f13e09535aU,
  0x3cc497d23e37c8a3U, 0xbcb731433d8d02d3U, 0x3d97492f3d7408a0U, 0xbda4523d3e3c3ad0U,
  0x3daa845b3c0c64cbU, 0x3e0129dc3b8174cfU, 0x3dc5abad3cdf1d9eU, 0xbda86ebebc1b39c8U,
  0x3dc62161bdf8787bU, 0xbd6002223d65af16U, 0x3d32b5f83ce1ef4cU, 0xbc69ce40be1daee9U,
  0x3d443d0a3df1f5f9U, 0x3d11fde8bca73240U, 0xbe3535c9bcf2f412U, 0x3c8a0b3b3dd7661eU,
  0xbd5a96b53e2f52c9U, 0x3b5dc6b6bc0a9d2cU, 0x3e1cb436be12f868U, 0x3d48076d3d68fa97U,
  0xbc25105ebdde4985U, 0xbd033689be28479aU, 0xbda516ee3df6b4c3U, 0x3cff90e4be6b79aaU,
  0xbdea40e43e088734U, 0x3d3a0fa53cd4f37aU, 0xbcfb3dd43d022d67U, 0xbc961086bd33a4ebU,
  0x3c1901c33d334445U, 0xbd3e6766be2a0b71U, 0xbc5b7efd3c9918ddU, 0xbd06c2bebe5a3668U,
  0xbc9d5290bdb1a8e8U, 0xbd3d9f62bda666dbU, 0xbe0fa0953e20c6c9U, 0xbe804d69bce1a161U,
  0xbdee7601bdf1a43bU, 0xbd29ebb8bd3e4e17U, 0xbd33e5433e56b263U, 0x3da5b1b9be43d42fU,
  0x3d2658e6bd806750U, 0xbe0e19fabb3f091bU, 0xbdae3140be50bfdfU, 0xbceae1a1bc8b3368U,
  0xbdbe0cf5bd7a539dU, 0xbd0c6318bdf844f5U, 0xbe1dfa2cbd69385dU, 0xbdedf295bde3d22bU,
  0xbd3c94d9bd363425U, 0xbcfc9d1f3d95d7e5U, 0x3d56bb3dbd851486U, 0xbdb4e3a83c2e84c2U,
  0xbdab17323cc974b3U, 0xbc0c01fcbd1cd1d5U, 0x3d2eb3cebe5efdaeU, 0x3b649055bc210e69U,
  0xbe19b165be062de7U, 0xbd9b09ecbde2c41dU, 0x3d52a69fbddc3425U, 0xbdc0ad9c3cd75565U,
  0x3d3ac8acbe02caf2U, 0xbd15344e3d82331aU, 0x3d3e1178bc8fad7eU, 0x3d401486be4a7606U,
  0xbe2f000fbd91c846U, 0xbdf87f583b134eeaU, 0xbe26a267be09732bU, 0xbdaa1f65bceb08b9U,
  0xbd4615683ae459a0U, 0x3dee0d653d6c5194U, 0xbd8e9f693e0ef4c6U, 0x3d93cb55bd52e0a4U,
  0x3dc52498bde29ac5U, 0xbd97abe9bdc677e1U, 0x3dd4aefbbd20b811U, 0xbc7c25103d7391aaU,
  0x3d50f9ed3d9da83eU, 0x3ca6dbf93d3b33e7U, 0xbd043e25bd7c99c0U, 0x3e2c2e473d5b5bd8U,
  0xbe7c2388be000393U, 0xbe12e7b43e04cbd3U, 0xbd042072bdb49c47U, 0x3bf49448bd81ed14U,
  0x3e0795acbe272399U, 0xbd0323aa3d94d71bU, 0x3d558d0ebdfeb679U, 0xbdbdf470be5add3dU,
  0x3de93a4abdf7874dU, 0xbd60f9fe3e1106bfU, 0x399745debd419b5eU, 0x3c829891be1f2ccdU,
  0xbc618e08bc301d7aU, 0x3e0cc3023d0ca77eU, 0x3d1c991f3da1a8b1U, 0xbd5afbe73e0c6e5fU,
  0xbd3b6b29bcac4844U, 0xbde413d93dabbcb8U, 0x3d8eec18be56cec8U, 0x3c002c5ebd9d6e64U,
  0xbc9f6a17bde0e4dcU, 0xbd68b7c4be5d0ba3U, 0x3e06649abe0f242bU, 0xbdaf510abe2ed813U,
  0xbd18ff00be64ffdeU, 0xbd0f2ba0bdc693f6U, 0xbe8506be3cb21294U, 0xbda04244bd66f21bU,
  0xbe8a1e89bd9c2083U, 0xbdaafd473dd21dd3U, 0xbe1ef12cbe16fbfdU, 0x3ce28ff1bd806ecbU,
  0xbd8be2eebcf4d820U, 0xbdc306f1be24b87cU, 0xbdbb7d1ebb8d18c6U, 0xbda68527bbcd4e1cU,
  0xbd19a2f53dae49e1U, 0x3dcbc7e3bd8a2a46U, 0xbe729d54bd991ec5U, 0xbe234019be227587U,
  0xbdff09cdbdc1c4ecU, 0xbea0786e3d1b3813U, 0x3db388b43e5ffa7fU, 0xbdc1e8c13d4d796bU,
  0xbdb039db3d9a4683U, 0xbd555853bd402c8eU, 0xbe846ebdbda47f0dU, 0xbb33a35cbd935395U,
  0xbda3d848bdb19313U, 0xbe6c90a5bd3c9acaU, 0x3dc490393d34fc4fU, 0xbcb5f1c03be45a32U,
  0xbd2d04f1bdb44fd8U, 0x3e0d4244be899df0U, 0xbd5976fcbe739551U, 0xbcd0271dbe56c738U,
  0xbe3151e33e04f8d4U, 0xbe61e0923dbbbd55U, 0x3d27afd23db6f65dU, 0xbd819a90bdffe3ecU,
  0xbd20a095bcf9ae59U, 0xbe1d21ac3c3384ccU, 0xbe8d5f8cbc8af609U, 0xbdfb5beebe2bbe24U,
  0xbcca34b2bcf88c90U, 0xbeacc3253df463aaU, 0x3c4d21f3bc3f7b62U, 0xbdbda2fe3db1a0d7U,
  0xbd2d7d113c53b4baU, 0xbda0a01fbe59bf3aU, 0x3aaf097cbeca8110U, 0xbd35c86abd89b250U,
  0x3d9e23773dc5e424U, 0x3e0256f33c4e9d0dU, 0x3db251cabd2e697dU, 0x3bab5e8cbe381e58U,
  0xbe04c696bdcef797U, 0xbd9c6fbcbe07ff7cU, 0x3d99f1833d497360U, 0xbd1ef710bdf18a54U,
  0x3e33706dbdc360deU, 0xbe0770b63e1b1083U, 0x3a5e1df63d23fe41U, 0xbd8fc437bcf0e36dU,
  0xbe03e266bbebb7beU, 0xbe278a8cbe35a4fbU, 0xbe17a88abd96df2aU, 0xbc887754bcf514d1U,
  0x3d7c0f143e1235e2U, 0x3e1711d63d81d36eU, 0x3ce92560bd84daceU, 0xbe09fb47be09a541U,
  0xbe8bc0163b9184bfU, 0xbe08f0b83d31d44bU, 0x3e0bd665bd724094U, 0xbd18fc1ebe632902U,
  0x3eb7cadebe3833c6U, 0x3d69a72a3e52f1beU, 0x3c3508dc3da02f3eU, 0x3c9b41b43b019d9dU,
  0x3d79e4e83e376604U, 0x3d29cfccbda5958eU, 0xbe2bff113e897fa1U, 0x3dbb78a6bd546d34U,
  0x3d7d80173d659e35U, 0xbd72a0ddbd670e00U, 0xbdbc05a43c999ef3U, 0xbe0cab39bd80b6b4U,
  0xbdf3bbe63c98f2d1U, 0xbdeaee52bc4f67b8U, 0x3d56770bbdd6f5d9U, 0x3c121855bdb8232dU,
  0xbd0f8c4bbd2678b0U, 0x3d7d0231bcc3a9d1U, 0xbd933e9cbd99376cU, 0x3d868777bde3e517U,
  0xbe29f9e33d24f45aU, 0xbe5155c9bd9d6c05U, 0x3c2264ecbde72fc5U, 0x3c96e2153cc0e67fU,
  0x3c6d9762bd168506U, 0xbd2a73d33d4dbc8cU, 0xbdccc9e93d8127cfU, 0xbdc6ec16bdc79752U,
  0xbdebb4b33c5f02cfU, 0xbd7389c5be097c98U, 0x3dc1e17abc00c483U, 0xbd98f4d83d8364dfU,
  0xbd840d47bca5aa9fU, 0x3c81b9c5bdfbe2abU, 0x3d54ad993d496a46U, 0xbd06b933bdb3f444U,
  0xbc95b9bebcc979c7U, 0xbae81a7cbdac2171U, 0x3d412e0cbe1b6f68U, 0xbdafd6573a9e1edbU,
  0x3d9f46eb3d2f5405U, 0xbd96a926bd95be79U, 0x3d5d9e17bc7b7b7cU, 0x3ce311af3c4bc27bU,
  0x3b3256203d3da27aU, 0x3c9455e6be00c71eU, 0xba06ed36bdeaac44U, 0xbd811b37bd9fc5efU,
  0xbe1407f9bd1d51a0U, 0xbd8fbdefbdac181dU, 0xbd912271bd9d23eeU, 0x3c21f5273d5b1800U,
  0xba1ab6b2bd38d850U, 0xbe1a4114be4bcccbU, 0x3c803955be0a583fU, 0x3d46a839bd91ba4cU,
  0xbdcc161f3d3251eeU, 0x3cfc30b3bcbdcb1cU, 0xbd311f013cc3a3f4U, 0xbe1a86aa3d85495fU,
  0xbd961d68bc0d6fafU, 0x3c4dec34bb04162fU, 0xbdbefff93cff3b38U, 0xbe1c06cabd487d6dU,
  0xbde0d3a1bdc9b94bU, 0xbdf59d883d853faaU, 0x3c1db2a1bd929d5aU, 0x3d851c8d3d73221aU,
  0xbe2501ca3cb3eedfU, 0xbe2d881bbd90b720U, 0xbcce84ca3b3caef0U, 0xbd188710bd93385fU,
  0x3d75f4acbcfdfe54U, 0xbe392bd43d4a09fbU, 0x3da5f5f9bda40a25U, 0x3aa018283c035f8bU,
  0xbe0ec8fbbc994745U, 0x3d096baf3d35b9c2U, 0xbe0169463db113e8U, 0x3c9d3d333c01a293U,
  0xbdffc1e2bd833b9aU, 0x3d06fe8fbdd54b71U, 0x3d7f6fd6bd6f94f7U, 0x3daa5a35bd1c873dU,
  0xbde220663d2623c2U, 0xbd4c88573bd19620U, 0x3c2f7cfd3d2e80caU, 0xbc83e885be4c3ec3U,
  0x3dac17fbbdce7a07U, 0xbddae174bdcf4e0cU, 0x3cb3dcb4bca8d78dU, 0x3d8cb123bda8091dU,
  0x3c32350b3d582601U, 0xbe1ad4b23d9ad074U, 0xbc5e46923dde511aU, 0xbb0a9126bd5e20fcU,
  0xbb3fe08f3d1b9b73U, 0xbe002a9ebd63408aU, 0xbd9d9d173cb2a5bcU, 0xbd302e25bce5dd11U,
  0xbd93f2c8bd28e164U, 0x3d01f110be82ee1eU, 0x39422bbebd4b9577U, 0x3c00979ebe1be670U,
  0x3da32e48bdb01a7bU, 0xbdabe1e23c968df1U, 0xbd3114f73c1978f4U, 0x3d0bf380be027f9aU,
  0xbd905e133d4b5cc2U, 0x3cf50d883d2bc8ebU, 0xbd91f0a23cfa2d8cU, 0x3bea4d383dc8e2c3U,
  0xbb9afb263e02ab39U, 0xbd634756bd91ad47U, 0xbd6a1a063da180a4U, 0x3c51cde33dec0458U,
  0xbdb89d583d54b4f3U, 0xbccdde2fbddecb76U, 0x3d84e1f3be12e684U, 0xbd3d1e6cbd122712U,
  0xbd9f484c3d88262fU, 0xbd5a1e493b808819U, 0xbdb886c63dc3f1b9U, 0xbdc9761c3d4d77e6U,
  0xbda1aa9cbd210a58U, 0x3db01cb3bdf7623bU, 0x3aa6ebf43da1463cU, 0x3d15dd51bd8e9b0dU,
  0x3e11b201bd393342U, 0xbd9047313d1add45U, 0xbd2cab11bd88d4cbU, 0x3c94a615bd691ebfU,
  0xbdef7718bde59a21U, 0x3b629bb03d4301b5U, 0xbc9e3aad3cd29257U, 0x3d401b1dbdbd9a23U,
  0x3dbbe9a33def0eeaU, 0x3e0c079bbc56fbd6U, 0x3e00bcdc3a9439a8U, 0x3dd8a705bdad008aU,
  0x3d9bd8593d706aceU, 0xbce196e43d7a67b5U, 0xbcfb6cbbbcf30ecbU, 0xbc6a09463d9fda50U,
  0xbc6808683d5469d4U, 0x3d5b36af3ded0747U, 0x3dcb5b37bdbabdbeU, 0xbd7953a9bd4c93dfU,
  0xbe379242bdaeeea1U, 0xbdf776583d04e68bU, 0xbd5cf8623dcf1604U, 0x3d9fecc3bd802756U,
  0xbd498f0b3d832a28U, 0x3db29e4bbda2785eU, 0xbdf4b871bd932cc1U, 0x3ddb6e923c2e0ae2U,
  0x3d793278bc1dbfe9U, 0xbe00411abd81a49dU, 0xbd912a563dbf7416U, 0xbde8bfebbc4dee86U,
  0x3db8676a3d5866b4U, 0xbcadbf31bd236509U, 0xbc9e69b93ac251e4U, 0xbdcad2dbbbf38186U,
  0x3cde92ea3d70ef2aU, 0x3d989746be126f78U, 0x3c7e7cafbd81567bU, 0xbd293357bdab48f8U,
  0xbea8a339bd8f65a1U, 0x3e49e7d8be846debU, 0xbdfada06be283d14U, 0xbdf5083a3dee5b54U,
  0xbbe11a013e67c3e5U, 0xbe9966543e056016U, 0xbdce5f1bbbf476d8U, 0xbcd54e2fbe598f11U,
  0x3e844b30be96a6caU, 0xbd1a8f8a3de30088U, 0xbf0c68ce3c01da20U, 0xbdedf41a3ca55c79U,
  0x3e326d623d57bcd0U, 0xbe256f1a3d28fd6aU, 0x3e46926b3dc69017U, 0x3c273a8b3db8cfb8U,
  0xbeb2d02ebe070221U, 0x3e264419be939470U, 0x3d27a449be39d36aU, 0xbd253fecbcfa5e83U,
  0x3dfbac633e38fe4dU, 0xbeefdc9fbe889bbaU, 0x3b13d8dc3b5d2795U, 0x3dbeb18dbd814e90U,
  0x3d63adb7beba29f1U, 0xbd8bb05dbdf1cb80U, 0xbed748df3ecaea08U, 0xbdf659b6bec712f1U,
  0x3dbc04d8b9013b40U, 0xbe7978da3bd39109U, 0x3e14dcb13d614a2eU, 0x3db9e39a3e29e657U,
  0xbe844122bd939078U, 0xbd616a40be805dd0U, 0xbdaa7f7cbe516da4U, 0xbd1a4c6e3da11095U,
  0x3de0539e3de4116eU, 0xbef55451bd4980cfU, 0x3da9f59dbd0a3826U, 0x3e0fab26bec0b298U,
  0x3c513dfebe9ec421U, 0xbcc9a05fbe69d49bU, 0xbed0de933f024465U, 0xbe35f4adbd995eaeU,
  0xbd8ce4e73d4c8c87U, 0xbe49a4f83db694a6U, 0x3def5117be0b85eaU, 0x3ca5233b3dac02afU,
  0xbe4c5621be516d18U, 0xbe11763abe1879ffU, 0x3dcecb523d2001c9U, 0xbe51847c3d2f1a5aU,
  0xbd782a923e4e1653U, 0xbf00f4bfbe885dd6U, 0x3dc2ba03be50dbc4U, 0x3e4034c9bec704daU,
  0xbd669bafbecf410fU, 0x3dcf5a57be33ad3dU, 0xbea8ff833efee32cU, 0xbe2ec5c9bdbbdc8eU,
  0xbd3a8c3ebe30f600U, 0xbea7fb123e53028dU, 0x3db3ba0c3e5eef78U, 0xbbfac33b3de88a73U,
  0xbe4f6ba3be198c60U, 0x3dff6483be8e7e5fU, 0xbd8756a2bd751087U, 0xbf0563adbde00d0cU,
  0xbd916cb63da54648U, 0xbeccec233d7c56b1U, 0x3d299af6be5de5c1U, 0x3d9f441dbf3dca69U,
  0xbda7a49dbeb4442dU, 0x3de9d4eeb9d3a08eU, 0xbec674c03f48dda9U, 0xbe57900d3d441172U,
  0xbce392b83c995dcdU, 0xbe419b8dbd391221U, 0xbe095b4a3dae9220U, 0xbd88864a3e0152d8U,
  0xbc517db03d930fa7U, 0xbd72c48dbcdc46afU, 0xbc6286d33df12e34U, 0xbd365ed0bd2d7bd5U,
  0x3d37ce203d91c8fbU, 0xbdaff064bdb24b8dU, 0xbe6aca3dbd5c01fbU, 0xbe4deec03d8dd937U,
  0xbd4e43f73e1b6ff7U, 0xbe30ee0ebd03ae8dU, 0xbd94b225bd5153d5U, 0xbd1e09203d449bbbU,
  0x3d91ec7b3d19f6c0U, 0x3d985324be9d1446U, 0xbde5fb383cfea670U, 0xbbf1b6eebe63ea8aU,
  0xbd60c9013c9119e7U, 0xbd84e5c3be00b518U, 0xbde9788d3e361fceU, 0xbd104a45bca775d2U,
  0xbdc7e3573cd4596aU, 0x3ca2759c3d6a9529U, 0x3d3d73823d4baf55U, 0x3d37770c3db21af3U,
  0x3e413afb3e035e35U, 0xbd86fb66bdf66c9fU, 0x3c1fa358bce9d419U, 0xbe2b47223dbb824bU,
  0xbd97602cbd2f72d3U, 0x3e00bb9fbe99b91eU, 0x3ca786f6bd451788U, 0xbd679f27be52ff37U,
  0xbdb80b69bdf5155bU, 0xbd8b7467bc937d01U, 0x3cc783d63e1b0383U, 0xbd929ca0bdcdc9f3U,
  0xbdcf0b0b3c4710f7U, 0xbd6f0cb93d37db1aU, 0xbc6306973d7a5d77U, 0xbe6104173d9acdb8U,
  0xbd435fcfbd24dd9bU, 0xbdb6db8b3d95bc59U, 0xbc81933c3d8d20c1U, 0xbab5148f3da5a9b5U,
  0xbe2c6589bdfcee4eU, 0xbd9837d1bd82993fU, 0x3d2c86acbe29a324U, 0xbcf554283cb9b0fbU,
  0x3d3e34a43dd95e50U, 0x3ac6b10fbcb7b75cU, 0x3cd0420b3d95c064U, 0xbdb862cebe061498U,
  0x3c9cdbc73dd668caU, 0x3d813ae2bd98251eU, 0x3d01190abc8e2809U, 0xbd96e0e83d923a50U,
  0xbe808a673d9485c4U, 0xbdfc12453ddf47a5U, 0x3e11a9c43b9fbb57U, 0x3a62ce923da027b0U,
  0xbde907ea3dee0808U, 0x3e0596a6bde2358aU, 0xbda90ddf3cf07932U, 0x3cae8d2abdd2eef2U,
  0x3d89e6693c03c882U, 0xbd8978f03e3671f1U, 0x3d8b396ebc6bb992U, 0x3c9458b23db363caU,
  0x3ca4d16f3d94504bU, 0x3e4916d93bb153b1U, 0x3d864cf83dea8f0dU, 0xbdf4e0ee3cc97cadU,
  0x3b9ff2ed3d0acbd5U, 0x3d45a4c83dbd66c7U, 0x3e2b0f8dbca75444U, 0x3dfa8d813c26e1d9U,
  0xbba5669dbd1162e9U, 0x3e0425c4be073cb4U, 0x3c62cae6bd87664dU, 0xbd2bac0abe0b6091U,
  0xbe02a5d13dff560cU, 0xbe0ceddf3d7bc750U, 0x3db09bf03e2c8342U, 0x3e42afd5bd845802U,
  0xbceb137e3e1b5a4fU, 0xbda5db8cbdbf25bcU, 0xbdf5a9393daf1043U, 0x3c18810d3e19ee8fU,
  0x3d9c74b53e608ed1U, 0x3c590cab3e000d27U, 0xbc839f133dde500bU, 0xbd0aca87ba44de56U,
  0x3c780f57bd971bedU, 0x3dba918cbe412fbeU, 0x3c142f6abe1772f0U, 0xbd99069bbdf8580fU,
  0x3ca94729bd28f1c8U, 0xbd7a56e9bd75cbceU, 0xbbeb7a583e52e27bU, 0x3df1abeabd56f277U,
  0xbca5dedc3c769871U, 0xbadfea2d3c87a04fU, 0xbdc69984bd7ed8e6U, 0xbd34ce5f3d94d0f3U,
  0xbd6a7b0b3d85d623U, 0xbdbc5eb9bb60d9c3U, 0xbdb866c73c261b2dU, 0xbe09f2653dbd1a2cU,
  0xbe30b0d1bc22fbe4U, 0x3d5b1713bdccb405U, 0x3d0808c7be1167bcU, 0xbdb36708bdc7e493U,
  0xbd8086b8bc96ac46U, 0xbbd2497a3d1a1508U, 0x3e1548e23e2d7419U, 0x3d7886a0bcb60243U,
  0x3cbd838f3d884ed8U, 0x3d99d5603d400187U, 0x3cbd08883c8c3ec8U, 0x3cd89f3b3d129d27U,
  0xbc395d4f3e3451e1U, 0xbe3d9f023ddb175bU, 0xbdf4d5ebbd9dc279U, 0xbdb653693dc160a8U,
  0xbdba5f3ebcc96da2U, 0x3e12bb04bd93dd23U, 0xbdc906573d5e984eU, 0xbd9b90ebbe033b51U,
  0xbc80b9073d5a82beU, 0xbd5cf3ad3dbfd1c0U, 0x3e040eb93de86ea6U, 0x3cc5864b3d6a46afU,
  0x3d75af003dadcf94U, 0xbc6be7f8ba7f0b76U, 0xbdf8421b3dc78a06U, 0xbdf472803da49f81U,
  0xbdaba5993dbe04f1U, 0xbdcb9bd73d7ac770U, 0xbd8202e4bd2c5a46U, 0x3d534c673e36fef2U,
  0xbd828a21bcfeda64U, 0xbd3e2d72bd5c9e41U, 0xba0a70b93c1fca28U, 0xbd6bd72f3c1b26a1U,
  0x3d8d0adc3dc567f3U, 0xbd0a0fc73d977992U, 0xbc8b04393d7b08d1U, 0x3dae4402bd8d7c2eU,
  0x3df4b4a23e11d1f9U, 0x3d186c48bd7efc45U, 0xbe16bdabbd958f3cU, 0xbe33cdef3e6986e5U,
  0xbdf640b43e4eca37U, 0xbd9c1139bd43bfecU, 0xbd0795cc3d7b311cU, 0xbd7e280c3e411354U,
  0xbe2803febd0d4cecU, 0x3d8062b7bd83a545U, 0xbcb0eeb4bbfa9638U, 0xbddbbd5dbdf9785fU,
  0xbdedab53bdc3784dU, 0xbd0c47783d08b738U, 0x3a29c8e63d2bc0e2U, 0x3db7b0febdbf9a22U,
  0x3d52f6ea3c98fb46U, 0xbcaa5d2ebd184943U, 0xbdeae4a73de0c2b9U, 0xbdcfda4d3d02d5f3U,
  0xbe33f6343bbae5c4U, 0xbe49ea4abc48663dU, 0x398fceac3dcaeb7bU, 0xbc5da0c23e1df06bU,
  0xbdf83b223bb63220U, 0xbafcb578beb13c4fU, 0xbe357f6dbe01f24eU, 0xbdfaf1cbbde08728U,
  0xbd7e69b5bc836bfdU, 0x3d547eab3d257191U, 0x3d40afab3cc228fdU, 0x3e0a8594bde36405U,
  0xbdeeec833ddb564aU, 0x3e4f56ba3de1c711U, 0xbd81f00d3d14cbe6U, 0xbe02c7023e019e2cU,
  0xbdff53f33e2c8a9eU, 0xbe08598e3e0c2c9cU, 0x3d0f4ed83dca5ef1U, 0xbd72529e3e0fea2eU,
  0xbd85d17bbba519a8U, 0x3e575908be8fa94bU, 0xbdf1ab2cbe361a8fU, 0x3d9877e73cf15afaU,
  0x3dd08263bc8ee729U, 0x3caf40053dda3662U, 0x3de676133e5c93f6U, 0x3cf114de3ca46373U,
  0xbb372aa43d7da39bU, 0x3e15831abd0db280U, 0xbe1dfa413d955d1eU, 0xbdeff4783de3e6deU,
  0xbb52ad423d71eff3U, 0xbe34ffa5bcc6acdfU, 0x3dc8c6c9bdce16c1U, 0x3b031bb23e40505bU,
  0xbd1b41eebd3cf37eU, 0x3d8334c3be158297U, 0xbe0940c0bdd6f603U, 0x3d9f83a93c52aea5U,
  0x3de409b1bddde5a3U, 0x3dd2d33f3c385a0cU, 0xbd5cd2b6bada5293U, 0x3cc915ac3cefd559U,
  0x3dc4bab33b7ed9cbU, 0xba9810393e03563dU, 0xbe19b67d3c31820fU, 0xbd638f6b3e16c4f1U,
  0xbc8cd344bc7903aaU, 0xbe20bb07bd49e4d6U, 0x3dece182bd18c144U, 0xbdba47fc3b739fbfU,
  0xbdb3d764bdc9b6afU, 0x3c33d79ebda45d5bU, 0xbd9c94473e40a5a1U, 0xbb8815843ae6ca10U,
  0x3dcac3f5be16d96aU, 0xbd038c843d2b391dU, 0xbc54887d3d7446cbU, 0x3d92cf02bdfbb0fcU,
  0xbdd0d1c73d1970b4U, 0x3cfebe91bccae9ffU, 0xbe1609babbcb3f96U, 0xbd0fa58ebd5fcf3cU,
  0xbdc270f73e210a70U, 0xbda224893d7d8eb9U, 0x3db06520bd26a753U, 0x3da957e5bc092fd9U,
  0x3bf32967be1fd3f4U, 0x3e34d156be7ff122U, 0xbe0adf71bd5c0fe7U, 0xbd5e44b8be72d069U,
  0xbe411be3bdf919afU, 0xbdd50811be500b02U, 0x3c0e24cd3de1bda5U, 0xbdc6d132bd845660U,
  0x3d380736bd89701dU, 0xbe692caa3cc20bbaU, 0xbdc1b14b3d5e7150U, 0xbe45ab823cc99f21U,
  0x3d0448adbc0a38caU, 0xbe4128e3bdbdffe5U, 0xbca807133d9b8ebaU, 0xbe565266bdb1a96fU,
  0xbe68fb70bde17255U, 0xbd103644be6fac4bU, 0xbe51921a3cd66d85U, 0xbcd7578fbe3f6f56U,
  0xbd76e0d63d2f61ebU, 0x3d9a7b5dbd6407b3U, 0xbe030c2b3e134dfeU, 0x3da2579fbe310fdaU,
  0xbc93e0973dd02a06U, 0x3d86024e3d96338aU, 0xbe060d75bc566eb9U, 0xbdf19b103e0cf6b6U,
  0xbd28377b3cbd2341U, 0xbdd574023d34fad0U, 0x3d25b03fbe25604dU, 0xbc548775bc3df86dU,
  0xbe5d331dbdf352bbU, 0x3df57c9fbe58b516U, 0xbe1667c2be26d021U, 0x39756968bec65005U,
  0xbdbe24b43da0a71cU, 0x3be0270e3d8a6673U, 0xbd4bd0853e14b0ebU, 0x3d46ba273d0e806dU,
  0xbe0e96a2bca20730U, 0x3e0484553dd5d3c4U, 0xbc65b3debdd49c08U, 0xbe4ddd113ce5f4ccU,
  0xbde0a5043dda3e1aU, 0xbd517b4d3d649b80U, 0xbd927614be122405U, 0xbd9983453d724a10U,
  0xbdb2d829bca2cce7U, 0xbd07a1853b53b718U, 0xbdb4c1ed3d9e7e2fU, 0xbdfa1f7dbe9157f7U,
  0x3da2bfd93da6e6d9U, 0x3d21e32b3d47fac5U, 0xbd0fed2abd7c5642U, 0x3d908611bd389522U,
  0xbb9dd794bdb96b04U, 0x3e0e1a31bd408860U, 0xbc311e103d47f7a9U, 0xbd6c548f3dbebc79U,
  0xba7a4b3a3cdf8d8eU, 0xbd2539453d89744eU, 0xbd6f68dabd135fe8U, 0x3d88bbf83daa8cf0U,
  0xbc5b8bd33c68bf70U, 0x3d66e0a3bd9843a7U, 0x3cfac525bd7435f7U, 0x3b3142753da54ebaU,
  0x3e138d8a3dab023eU, 0xbd30bc7f3daa3244U, 0xbdb8c58c3dc620ffU, 0xbbbbab28be0e8451U,
  0xbe0584e03d7f5ff9U, 0x3d7620923dd1a040U, 0xbd9e7ab93dad5567U, 0x3d15ee4f3cb7a587U,
  0x3c9517a93c877dfbU, 0xbd44b0dcbda0948dU, 0x3e042332bbdaa770U, 0x3e02949c3ccd7428U,
  0xbe02adf03d9e89caU, 0x3c366448bdd12750U, 0xbd9569823bca78a8U, 0xbddb97e4be8724dbU,
  0xbc853adcbdbc0cf0U, 0xbe2dcc603d0f9ba7U, 0x3bcdbd62bdd2180cU, 0x3dc0ba07bdd8ac8dU,
  0x3df4b0583d7b7ff5U, 0xbe002a35bd38c6fbU, 0xbbe1f5f83d0a15d7U, 0x3ccd474b3dbe9ba7U,
  0xbe2de0fc3cd2be01U, 0xbe8161a0bd6bbc05U, 0xbddd7d613e349412U, 0x3d38ad67bd0a6126U,
  0xbd14138cbe379ea5U, 0x3d4b6400bdca88b0U, 0x3d0483d6be5fefd6U, 0xbcea7e9bbd13e0b5U,
  0xbdb8d3a9bc84ed3dU, 0xbe074c7bbde405b3U, 0x3d79e8a23d7877fcU, 0xbdc2d50c3d5cf5e3U,
  0xbbcbabf23dee3a0dU, 0x3de36a6cbd9594a1U, 0x3d83c9bf3d2657caU, 0xbd756eefbc037167U,
  0x3cd99e893e11d534U, 0xbdd9fa9a3c913de6U, 0xbd4f005ebd74caebU, 0xbd5b5d733de33961U,
  0xbe5af753bde874d3U, 0xbd395a4cbc807bdbU, 0xbd5900663df6afc5U, 0xbe19a081bd6d6bb0U,
  0x3db77cc0bc8ac75fU, 0xbc8bde80bd43d66bU, 0xbe133b16bd862800U, 0xbd9c799abdbf142eU,
  0xbe17a323bd0b32afU, 0x3cecea25bd834758U, 0xbd0ba2503dcf36beU, 0xbdc42e1fbd8b94f1U,
  0x3ccadc703d0941ceU, 0xbe1bc1c3bcbfff71U, 0xbd61f4a3bda17de5U, 0xbd7dbcb53df797d6U,
  0xbe6b2401bd24441aU, 0x3e17c38dbe310971U, 0xbe347455bdab0e81U, 0xbdfb8d0fbe47ba51U,
  0xbd854c823ca135c0U, 0xbcadefcbbd90dac9U, 0x3c2c4ddb3c2ce5a7U, 0xbd6c06a53d7fad3aU,
  0xbd93703dbd65392fU, 0x3dc56462bd9bbdc8U, 0x3d5917923d0ffca5U, 0xbe086b203d4a4779U,
  0xbe6d90bdbda41f2fU, 0xbdfda7193d553727U, 0xbdd644ed3adfcc71U, 0xbdc855303d95a4d4U,
  0xbd0165cabc89a347U, 0xbd895a65be8684a2U, 0x3b823cd73d4adc8eU, 0x3d9d773bbd88b155U,
  0xbde7f89fbe1436a1U, 0x3cad227e3df94042U, 0xbd39fa48bbf4dfb5U, 0xbde8e2c33d453b47U,
  0x3e5ad25e3d349681U, 0x3e14ebde3d9cb54bU, 0xbd98cb0e3d9306b6U, 0xbddd97f13d846b9fU,
  0xbd7c9e40bda35a54U, 0xbdcec94ebe1f0a57U, 0xbd900a09bddc89f8U, 0x3d680fdcbad13432U,
  0x3e07a0fa3d548c31U, 0xbd85e0203c899bb5U, 0x3dc9688bbe12ec5bU, 0x3d231312bd91b046U,
  0x3d47d6b5bdd03cefU, 0xbe299584bcd6d7d8U, 0xbd112d06bd7dd9ccU, 0xbdc9be0abc85ba0bU,
  0xbd391f33bd39f31dU, 0xbdd12baa3d62108fU, 0x3db9257fbb75fcf0U, 0x3b89d90ebde44798U,
  0xbdb145f93d152af9U, 0x3d51210d3d6c1bf5U, 0xbdc6ad22bcffca0eU, 0xbd50106cbd79cd7eU,
  0xbcff7d47bc0df5a5U, 0x3d13c575be34e981U, 0xbdbf272fbe2f7889U, 0x3d8e5956bce75edbU,
  0xbd3d9a603de0ca25U, 0xbdfc04a5bd8ca176U, 0xbc25287ebdcf28e7U, 0x3ca56e55bd5a3d84U,
  0xbc1b1eebbc4a600eU, 0xbd8f4743bde0ec30U, 0xbd89e688bb57a35dU, 0xbdf1d9a83d06f832U,
  0xbe199c28bd0fbfd7U, 0xbd162c92bc9c10d5U, 0xbd9942023d4343c3U, 0x3d1bfbe53ce6e655U,
  0xbd868fc3bdc6ba93U, 0x3d373fd2bdeac40fU, 0xbb5779393c0ef075U, 0x3dcbdb65bd3cc17dU,
  0x3d084ab03dd098f8U, 0xbe4b781f3d961c3cU, 0x3d7b7e7abd3b73baU, 0xbdc9ad483db9a192U,
  0x3d20906c3cfbae91U, 0xbe155e993d862f2aU, 0xbd1568b1bdc1bf67U, 0xbd787981be00f732U,
  0xbda8cfadbd8e2d7eU, 0xbda2e126bd5f708aU, 0x3dad41a8bdcdc812U, 0xbdbe8faf3c5316fbU,
  0xbd9c6609bcf4f8dfU, 0xbdc7c53abc01619dU, 0xbd35920ebdb4fdceU, 0x3dbc103cbdc9689eU,
  0x3d2edae53d86381aU, 0xbe2fc2a73cebbf3bU, 0x3d90fb74bdd737f8U, 0xbcd4dc50bc12c5d7U,
  0xbcc9c95cbe0637e6U, 0xbe3b156c3dcc9412U, 0xbd8ee226bd308b5dU, 0x3d630c17bdf243b6U,
  0xbe63f894bde4abfdU, 0xbd80b81fbd774b80U, 0x3d598eb23dae4de5U, 0x3d6a8440bd8b17e0U,
  0xbdee41373d85d1acU, 0xbcce0f6dbdb80ce5U, 0xbd3d95ecbe516f29U, 0x3cac83fbbde57b52U,
  0x3c1a88a53cc7ab25U, 0xbd2c928e3d1685e1U, 0x3d5e020b3d33a7a3U, 0xbcf53d373b5f2855U,
  0x3c3e302bbe036f2dU, 0x3be1ac71bc8e608bU, 0x3c9462a3bd9dcfceU, 0x3b9cd2cc3c27966fU,
  0xbda6aaa1bd3c4f1cU, 0xbda6181a3ccd1563U, 0xbd913a90bd1fb81dU, 0x3c26cdb1bd67e3aeU,
  0x3d531d6c3cb07b17U, 0x3d3be930bdac1cbaU, 0x3d02dc86be393be2U, 0x3da88520bdbf1280U,
  0xbd1f86b93e557957U, 0xbebadda2bc7a584aU, 0xbe0cab623e1e9a04U, 0xbc6b43693e62dfa5U,
  0x3e415441be3f8fb7U, 0xbda4eef93ce5e956U, 0xbe29c01b3dd7e9faU, 0xbda43d40be90febcU,
  0xbd494f8a3e5840cfU, 0xbce6601a3d3dd9e1U, 0xbde3cfc6be690431U, 0xbe06bc13bd1bbc74U,
  0x3e5daa8abe06c85eU, 0xbcabcab73e5718dfU, 0x3de90553bd808636U, 0x3db0fbbfbd55443cU,
  0x3d6634c63daa3375U, 0x3e1624ee3ddf88f0U, 0xbe00dc053d3189b8U, 0xbd89a8a8bdace6c5U,
  0x3db56ff23e328ab1U, 0x3d966b553e0ae501U, 0x3d8739323e12e153U, 0x3e0bc40b3dd6b7e0U,
  0x3ecb4c17bd5adb1cU, 0xbd15fb0e3e91847eU, 0x3dbd93d2bdab41a6U, 0xbd11eb7e3dfb3bd1U,
  0xbe093622be2a2beeU, 0xbbfc4bc73df36703U, 0x3e727027be3443b7U, 0xbe25998e3d4bd50aU,
  0x3b5d07c03cd42f74U, 0x3e06e8d03e242f61U, 0xbdc3100ebdfccf0fU, 0xbeb98884bdc9aaf2U,
  0xbe84d04cbdb78801U, 0x3e0b5faf3e43749cU, 0xbd0bc40a3d6f1105U, 0x3e7ae03fbe1ffa6bU,
  0x3e54e94fbe87cd07U, 0xbe37085dbd0be4c9U, 0x3e2969fcbeca3e70U, 0x3d9ac9f1bcdf9d69U,
  0xbe032e403d9d2a94U, 0x3bc03239be8cdffcU, 0x3d962d5cbd190b53U, 0x3cc2e049be9faf07U,
  0xbd6de719bc565debU, 0xbe078284bca923dcU, 0xbe1208cabed3e29fU, 0xbdc8114fbc14fffcU,
  0xbe228c233d1e50d2U, 0xbd806ea4be0d5f68U, 0xbe6ae917bd25dad2U, 0xbd928160bc5dac89U,
  0xbf1e407a3d7e105dU, 0xbdc67379becd34b3U, 0x3e07693e3dad0a11U, 0xbd82ef32be22b52aU,
  0x3bd357343d4d994bU, 0xbd91487fbe5ad54cU, 0xbe220e04be7d226eU, 0xbca8063ebd8682a3U,
  0xbeb73c65bdccfe0eU, 0x3c707cffbdf0c252U, 0x3d300692bdc1a8bdU, 0x3d0c4bf23e28601eU,
  0xbd80d1a1bd72f2c3U, 0xbebaf1ddbe5ce39dU, 0x3d28476dbe330c06U, 0xbd488b91bca57df2U,
  0xbec7c5a23e223772U, 0x3e4b9ceabd38847eU, 0xbe95e5cb3ddf66fbU, 0xbe515b15bd4d4113U,
  0x3c6fdecdbd61ef53U, 0x3dc9b009bd8ac158U, 0x3e50f632bde9dedeU, 0x3e7c34203e8e9783U,
  0x3d84e1603d49669fU, 0xbde2e9c03ce859baU, 0x3d927f263db86ac8U, 0xbcb865a9bd2f68b5U,
  0xbd607543bd91ec61U, 0x3dd77593bd8cab97U, 0xbe000d1abd59bf4fU, 0x3cee455c3dc15200U,
  0x3c832ef53d8986b3U, 0x3bd37f6bbb7dbddfU, 0xbda606ebbe01bdd2U, 0x3d640707bd4a80cbU,
  0xbda5aba3be0aec24U, 0x3df54956bd81d7dfU, 0xbba6aea2bdcfcbbbU, 0xbd08501f3cf30ed4U,
  0xbda5bd61bcec9fbbU, 0xbdac848ebdf80228U, 0x3d699b203c4c52e5U, 0x3c2bbf7c3cfbdbb8U,
  0x3d259c093d72a1b2U, 0x3d49113fbdcd8760U, 0xbe0126633c8f01bcU, 0x3d858cc13cc2118aU,
  0xbba75a6ebd536278U, 0x3d622e873d3a5c96U, 0x3d8d95f73dc9472aU, 0xbd96f3563db332ffU,
  0xbe2a2cc9be15cf85U, 0x3ca50a6abe38b632U, 0x3ac492713cd5df14U, 0xbe07563d3c31dcf8U,
  0x3d19f72ebd9f544dU, 0xbdb8e4c93ca7a1d4U, 0xbd0040e33dc53902U, 0x3db89ee8bd2aa385U,
  0x3d41e560bc4ee20eU, 0xbe31404a3d7f8576U, 0xbd9d146c3d801c09U, 0xbd178483bd0961faU,
  0xbce8547c3d93cabaU, 0x3b00383bbc7e5bafU, 0xbda05bac3c3b8d4bU, 0x3dca80e03ddd3a4dU,
  0xbca35663bd22ccf4U, 0x3d6e0bf83ccd907cU, 0xbc5f89d73d3304beU, 0xbde81b4c3d6ac611U,
  0xbcfa733bbcb828d5U, 0xbe0ce136be073ef1U, 0x3c1377cfbd26b070U, 0xbd3ff464bcad03a8U,
  0x3d8b61dfbd2a6266U, 0xbde2ae0a3d5b318fU, 0x3c225deebd69fbe6U, 0xbe11a60c3df0ed3dU,
  0xbd8e8308bd3aa9f4U, 0x3d580dbebcfb5388U, 0xbdc93efabdc23b2aU, 0xbda86ee23cfe4472U,
  0xbdcf783abba4cf00U, 0x3cf2df31be26189cU, 0xbd25cd173dbe0828U, 0xbce2596fbe22bf3dU,
  0xbd9299723b721790U, 0xbdb3d89fbe218646U, 0x3c751fb43cd50076U, 0x3d60585bbd4fd20aU,
  0x3d9c8b97bd8e5243U, 0xbdf52e28bd25f26fU, 0xbd0ebbb9bd84d542U, 0xb98adadb3e24a808U,
  0x3d008e133debd6c9U, 0xbe19617fbbe67967U, 0xbd0cf305bcf5e9abU, 0xbe07eaa63c608e27U,
  0x3aed507abe26bc9dU, 0xbcd3425dbba5f6afU, 0xbd42fc22bde3fc75U, 0xbd6208adbe5dde2dU,
  0x3d44d4c4bc1fc0b8U, 0xbc702ed13e0576f9U, 0xbdc2c1423c63c8b3U, 0x3dbff5a1bc3a7672U,
  0x3d6318c13d689ebaU, 0x3e0b5b0a3db7324eU, 0xbe443f14bd7a93bfU, 0xbe384dcd3daebd46U,
  0xbe0820f93d74aeecU, 0xbe292102be21059bU, 0x3d1558a73a85e504U, 0xbdf4b2083dc478adU,
  0xbd15fa26bdef0c60U, 0x3de45476be5c8174U, 0xbe5b904ebddfecaaU, 0xbd2ce568be584cd5U,
  0x3e029d7e3d1c95afU, 0x3d21e2133da4add7U, 0x3c2be7a5bd8694a0U, 0x3d7106b2bdd90af6U,
  0xbe159219bdc3a873U, 0x3dd912f73d91e994U, 0xbb837f34bddfe0d3U, 0x3d6ca8c73d595aa6U,
  0xbbf32df73d58c6b7U, 0xbe2c1b7b3d7208b9U, 0x3de3e4723d6d8d7bU, 0xbc01f62f3db00820U,
  0xbdcb8b66bcf77422U, 0x3e16bed5be06582dU, 0xbb94f70b3d113734U, 0xbcba6be5bd92971bU,
  0x3d306e27bd24ae5cU, 0xbdacb975bd0e7f5aU, 0xbd86265d3cc5a947U, 0x3c9a28d2bdae5184U,
  0x3cc694b6bd8d3daaU, 0x3e30779dbd84d0e8U, 0x3cf7c0363ddf50c5U, 0xbdaca922bd81729aU,
  0xbe691565bd8a7e2cU, 0xbdc573873ddac3e3U, 0x3d77725ebdab61bdU, 0x3d21c01f3cf137c7U,
  0xbdc996403dcf13c3U, 0x3dd22498bdc0d33aU, 0xbd9980fa3d3f4b21U, 0x3ce293d23c00115aU,
  0xbd8bd2323da02399U, 0x3dd27d70bd2b484eU, 0x3ce0d9f73d8cb1edU, 0xbcbebf28bd2a48d6U,
  0x3de4a88dbd49a7f9U, 0x3e4575a53c4a8ef9U, 0xbe446f973d36fe3fU, 0xbe24db07bcd86364U,
  0xbc6b2c543da36b83U, 0xbe8c0aae3dc0626aU, 0x3de9f0e6be51548eU, 0xbdc6f7eebdec1f10U,
  0x3d69f0e23dc2002eU, 0x3c2b9ef6bd85cf86U, 0xbdec9fd4bd994b6dU, 0x3bdf3a13becf693eU,
  0xbca22e47bde9fef7U, 0xbdf476ab3bc3cc06U, 0xbd351fc73e00965cU, 0xbcf0c688bd44a61aU,
  0x3d2b01d6bd99f801U, 0x3e421b713de58fd5U, 0xbb952cfd3dda68e8U, 0x3d84a5c43de51e7bU,
  0x3d463eaa3bedcd28U, 0xbe954d09be1026c8U, 0x3d92b055be040139U, 0x3e1253cb3d11d414U,
  0x3dde1142bd9a35c2U, 0xbd5ff9cebec85fc0U, 0x3c9bdacfbe17a201U, 0xbd761bd3bd68224eU,
  0x3d144e33be02e37aU, 0xbde99a97bdfa7abfU, 0x3cb6b20f3d46aed3U, 0x3e316660bdc62ab6U,
  0xbd8cf22a3dcd2c4eU, 0xbe090d083d14a36eU, 0xbd87f926bd1be9f5U, 0xbe8642773d40a4ffU,
  0xbe100bf33de11ff9U, 0xbe93a7c6bce3e6f2U, 0x3de01dda3c9a48ebU, 0xbe159d723c2dfd92U,
  0xbe223fb2bdc91fe0U, 0x3d8d90aabe56e2f3U, 0xbe13927abecd726fU, 0xbcce5895bea3b444U,
  0x3e0db54c3d058613U, 0x3d99c1493b87cf06U, 0x3e199cfa3e560b8aU, 0x3e064b1fbc4c2b21U,
  0xbdfd416b3cf9dc82U, 0x3e51a834bbe329a0U, 0xbe1b01d0bd159750U, 0xbe0b21ecbc0e77f5U,
  0x3b8dbb7c3e49b573U, 0xbdca67c73d58c055U, 0x3e458d363d010decU, 0xbe3435733cb6314bU,
  0xbe64901dbdab0a09U, 0x3de7307dbecd3877U, 0xbd9ff2c5bec1dac0U, 0x3bf14d56bef3c137U,
  0xbd17350ebc5e3c06U, 0xbc2b6e4b3ce01f48U, 0x3d459ce13e526c4fU, 0xbd75bdf9bdf87fa4U,
  0x3ca75f1e3c08e920U, 0x3e2255223c94475fU, 0x3cffc167bd4431f8U, 0xbe2242ab3d1cc4d9U,
  0xbe8f58133dbf1d3eU, 0xbe755a49bd48b221U, 0x3e137300bd8bd78eU, 0xbd3baee43dc0b742U,
  0xbe18e08cbcc2b61cU, 0x3e45a2e6bec211cdU, 0xbc9170c5bde1e8f6U, 0xbdb34ccebdc1b6faU,
  0xbc8e58f83cae1689U, 0x3d4fcdb23e613621U, 0xbd1fa0233e1b7513U, 0x3d48284abd38ff83U,
  0x3d3af92fbd178100U, 0x3e329abc3d736284U, 0xbd5c6e0c3e3e1defU, 0xbd8c11be3d2d50faU,
  0xbe8eff22bc92cae3U, 0xbcbba6b73dd63ae5U, 0x3cf8feecbdb0f8abU, 0x3e04f078bcf39ae9U,
  0xbd89d5e43cb15f6bU, 0x3def013dbe909350U, 0x3d5b52cabda95109U, 0x3a61fc5ebe688ae9U,
  0x3d28db52bdb0c1acU, 0x3c19884f3e1fab07U, 0xbde531fc3c8515dcU, 0xbd3dc2fe3c7a20a2U,
  0x3be077f23c6cb396U, 0x3e52b86bbbaf7bedU, 0xbde02de53d34d323U, 0xbde83ee13d79a733U,
  0xbd8087083d05b8b1U, 0xbebe79f53e007497U, 0x3e49c8babd2e245fU, 0x3e3771253c53aaacU,
  0x3d689102be102945U, 0x3e3fce5abe88274fU, 0x3d271de5bd8b0070U, 0xbd936efabe4c8477U,
  0xbf0a6725bd91bf55U, 0x3d8be966bea637e1U, 0xbe509f08bdc5dd55U, 0x3d00b99f3e5e3528U,
  0x3cef60113dadfb01U, 0xbe970a07bde31299U, 0xbe7289c9be750a0eU, 0x3db099a3bd6c9be9U,
  0x3e1eeb15be39355cU, 0x3cc840493c46e4e8U, 0xbf1d018c3c44c72aU, 0x3dbea68d3d8bffe7U,
  0x3df7f8873de42c7fU, 0xbee292333e1cfa15U, 0x3e64aca1bdf40176U, 0x3dc989103ea95b80U,
  0xbf129eebbe8d6a76U, 0x3e1b3148bf13087bU, 0xbd93f439be126e7aU, 0x3d42db483d9baf3dU,
  0xbc464d653d533336U, 0xbf334bebbe881b46U, 0xbd1ea7c9be4218fbU, 0x3d43d4bbbe47c35aU,
  0xbde95b5fbea725d2U, 0xbcc7a7aebda5d62eU, 0xbf0ced863ebce611U, 0x3e1f06babe322ed9U,
  0x3e2cb6553da96db0U, 0xbec80c043dec5852U, 0x3e497c553a98b61eU, 0x3e2773e73e98142eU,
  0xbeeb63debe369a10U, 0xbd8e4734bed7c88dU, 0xbda97ff73c0ba004U, 0xbe385e61bc04dd59U,
  0xbd8066bd3b94ad52U, 0xbf4154dfbe97804eU, 0x3d415195be776dcfU, 0x3de311e1becaa9d2U,
  0xbe7ef905be9f883eU, 0xbcbd937cbe615e1cU, 0xbf0996873ea3ae03U, 0xbc5c6342be334217U,
  0x3db5938f3dc74bfeU, 0xbef2cd633ccc8abfU, 0x3dfe0705bdb0b58fU, 0xbdd55b893e84fed0U,
  0xbe9837b6be96e173U, 0xbe9e4594beac4bc9U, 0x3ddcb006bcf1ffe4U, 0xbe74a58bbdaead0aU,
  0x3d631df13db4681cU, 0xbf08a1c2be10017fU, 0x3e870300be9c302dU, 0x3e2c6d7bbe406fa1U,
  0x3c191e24be496221U, 0x3e99b304beb0a91aU, 0xbe8d9de13ef0d72cU, 0xbdb3350cbd11342bU,
  0xbc84cb39bdbc427aU, 0xbecf4e823dcaf393U, 0x3d386a0b3e9dfedfU, 0xbde851243ee09798U,
  0xbea6b634be20ef47U, 0xbd56baf3bdec34fbU, 0x3cb8277f3bbf86d9U, 0xbdb8f3b73d94d7e3U,
  0x3d8184db3d77cd65U, 0xbe77a323bd281996U, 0x3eb88d7cbe55c3e3U, 0x3d987b813ac439caU,
  0xbd91c0be3c8a7d44U, 0x3eafc9c5be200308U, 0xbe91226f3f4b324aU, 0xbe8e4b55bd170f96U,
  0xbdf7414abe81d0e4U, 0xbd8e477c3c9cf8d8U, 0xbdecf9b53e6c7e30U, 0xbe60300abdb6a040U,
  0x3c5342a03c868276U, 0x3bb96913bdd9696aU, 0x3d9009f63dd00ed0U, 0xbdb4e13dbd299cc4U,
  0x3e1845473df49360U, 0xbe6f9eaa3cc04e3bU, 0xbe277c6ebc8224cbU, 0x3e21b397bd5e0fd8U,
  0xbda1fee13d67c630U, 0xbdc0d7a0bdee611fU, 0xbdbcfc2bbda5f785U, 0xbe1b2a3fbe05d167U,
  0x3d876d8e3d41add6U, 0x3d3b7cba3d5b8ff9U, 0x3e18151c3d8b5b51U, 0xbe0d56713df9cab5U,
  0xbdfcbd13bcf6b2e3U, 0xbc67c4dfbe178f67U, 0xbc5aabd93d23450eU, 0x3d137629bd061207U,
  0xbd40f3b3bd8900b9U, 0xbe105d9bbd8d9bf6U, 0xbe0841cabd0e9ec4U, 0x3d8a91aa3d929911U,
  0x3e36597d3d16cd0dU, 0xbd95d068bdbadb30U, 0xbcf513d53e5d75f2U, 0xbd326b0ebdda8617U,
  0xbe1e8aaebcbf39d6U, 0xbdc1696fbc4df4f1U, 0xbd526f343ccaaf0bU, 0xbd71368d3db54019U,
  0x3d1b18adbdf54c34U, 0xbe528f10bd55688dU, 0xbc17ac613bd0faddU, 0xbd0bf6a2bd646b1fU,
  0xbc0e41543d1b2ebdU, 0xbdf71f1bbd793f35U, 0xbb267c97bd09b907U, 0x3d1c6a93bdb0231aU,
  0x3da51258bd3c90c3U, 0x3c2b4269bbfd789dU, 0xbd8c58963d9cbd36U, 0xbe1691afbdb17e78U,
  0xbe414ec1bcec4b13U, 0xbdd30dbcbbf5b477U, 0x3c5150743e6b94bbU, 0x3ac1809b3dbf7d93U,
  0xbd6dd24ebdeaaa64U, 0xbe160339bbd3724cU, 0x3d4bbdf1bc722a52U, 0x3d3a3580bd145909U,
  0xbd8a1d50bc748533U, 0xbd5f53c0bdd992acU, 0x3da18f98bdf9cc6eU, 0xbdb2219ebd9fb56fU,
  0xbdc43940bd7d2a54U, 0x3d930c243cf596d8U, 0xbc61d8c43d3c6abdU, 0x3cb1f1bc3d283f94U,
  0xbc5ce0bb3cc6d18dU, 0x3d7bd7b3bbb2ca6dU, 0xbd7d0f873d1ed5beU, 0xbe08927b3bb0d38fU,
  0xbe10e7733d86e0fcU, 0xbe1ab174bdb7f3edU, 0xbd496ccb3d5dc694U, 0x3d35bc15bdcb73ddU,
  0xbd9d22723c6a4e09U, 0xbd119576be009ddbU, 0xbd8627463d33ad13U, 0x3d1792de3d04dacfU,
  0xbe10519b3de40b38U, 0xbd5c9d1d3bded955U, 0xbd8d16c93dc3583bU, 0x3d0765793dc5e1d5U,
  0xbdb878a1bc69a042U, 0x3dbf4db1bd90889bU, 0xbdd4c161be2185f5U, 0xbe25c8acbe8345dcU,
  0x3e6cb2fd3d7a1dd2U, 0x3d5a550e3e2db1a0U, 0x3c899d05bdf33addU, 0xbe89156ebcfe4b2dU,
  0x3ca50651bd845711U, 0x3e133d393dddf4bcU, 0xbd493e2abd204b0dU, 0xbe636936bccc0390U,
  0x3c739a97be418dd9U, 0xbe42df66be36086eU, 0x3e59ccbabe14d617U, 0x3e08c352be1d2742U,
  0x3dd5fece3e4c991fU, 0xba9074e6bd035c8aU, 0xbc19a407bde30000U, 0x3dba2a60be449de4U,
  0xbd8be4f23e2daf67U, 0xbe163f50bccc5765U, 0xbe548e55bb491d1cU, 0xbe0b65b93e4559f5U,
  0x3dfba50b3c22833fU, 0xbd15cef2be0d7d94U, 0x3d90a5fb3c1046c0U, 0x3be83aa0bb9745d3U,
  0xbee4b9933ded13caU, 0xbcbd63a2be451707U, 0xbcc0916cbe2d1ae0U, 0xbdcebec2bd9641d7U,
  0x3debae123da5bd31U, 0x3dc7e01b3e182d4eU, 0xbdc1ced13b3238c6U, 0xbdde2bcb3d7b5642U,
  0x3e845213be3e3570U, 0xbecb29613dd751e4U, 0xbbead2003e3a0974U, 0xbcb664403d1fbcbbU,
  0xbd8d6e943eb59535U, 0xbd10fcdd3e10f594U, 0x3d925cb03db16a97U, 0x3e7381bebd9bf3f3U,
  0xbec590d0be1628b4U, 0x3d77c6173d29f58bU, 0x3e508e5abd981f46U, 0xbe80b2113e284d79U,
  0x3979cc60be225bd2U, 0xbe2e97ca3e8ccafcU, 0x3d9c643b3d17e831U, 0xbe28cc813da2ea2bU,
  0x3c0ff6123c67b5d3U, 0xbdba624a3e24bc1bU, 0x3c3b49443e74c398U, 0xbe6d1046be286b8eU,
  0xbe1b9e4dbd9e2010U, 0x3de7a85d3e01cbd1U, 0xbd8964aabe765668U, 0x3dbec8d5bdf7624fU,
  0xbdd4d67abe27f06eU, 0x3e47c6ecbebfa300U, 0x3c54bf81be9357cfU, 0xbe17f32fbec9c24dU,
  0xbce7b54bbe9851b8U, 0x3e2147773db38e02U, 0xbe6cec763e1a3c7cU, 0xbeb01b2cbdd91a49U,
  0xbe914379bc6a7ae4U, 0xbe49ae90bdf3a877U, 0x3e4eca713ed141ffU, 0x3e8f128fbe44ec74U,
  0xbe4212f83e231016U, 0xbe9135b8be57a2a8U, 0xbe8b42f73e354729U, 0x3cb47afdbd21da2dU,
  0x3dba50ac3e40b0b8U, 0x3cfe5472bcc8d424U, 0xbe5544243e863e88U, 0xbd95ee31be2304a8U,
  0xbc67f3fcbe91c45dU, 0xbe8da7b0bd240085U, 0x3d8a869b3d03763fU, 0x3bfe62883b9d4531U,
  0x3d5d42833d4940a3U, 0xbdf99762be1a4846U, 0x3db53a393d97b54fU, 0x3e184a0abe0a39bfU,
  0xbd9ed4183d80b74cU, 0xbda9e08dbe0053c0U, 0xbe02169b3de4baabU, 0xbde9deeb3df4b517U,
  0xbdff2f7c3e653091U, 0xbe4dcd19bdaeb049U, 0x3c9492a6bdf48584U, 0xbe0f0bb83d9964aeU,
  0xbe65f9323d1e80eeU, 0xbb296629be7a7887U, 0xbe1e688ebe00f800U, 0x3ca89dc2bebd01f5U,
  0x3df94c65bd54bb25U, 0x3c0f3d913d5191bdU, 0x3de955b83d29a656U, 0x3e1ec459be2e9148U,
  0xbb1e930e3d486601U, 0x3e5c95213d4a7228U, 0xbe324a78bc587d36U, 0xbe0ea6c63dbfb3b7U,
  0x3d2363aa3e5e10b5U, 0xbdaf0bc3bd8f7916U, 0x3d0d81fa3cb4d846U, 0xbe1366f63d91b99bU,
  0xbdf0b289bde1b305U, 0x3e625d87becec8eaU, 0xbe2317dcbe90cb7eU, 0xbd5ea01abebacd65U,
  0xbd488418bc41be33U, 0x3d434a043dbdc86bU, 0xbcdab1553cd7667eU, 0x3c9abe5cbd92f720U,
  0x3d834003bcd3a2f6U, 0x3e57e7903dfeeb58U, 0x3deaca28bd965f0eU, 0xbd8df18abd028564U,
  0x3cfa8dde3d21cdcdU, 0xbd95b677bd94bef4U, 0x3d8b014cbdafa663U, 0xbdb0a6a23dda3fe6U,
  0xbdb93a21bd959c2cU, 0xbc938237be85b978U, 0xbdfbd421bd0b6d23U, 0x3d369f543d8e822bU,
  0x3d7497f23e0bcc43U, 0x3d0a1a5f3b9c1365U, 0x3ca8a31b3e50d025U, 0x39eae82ebdc479e2U,
  0xbda66a073d6d3bc4U, 0x3d8fa8c1bb4ace68U, 0xbe0d21de3cd78a3fU, 0xbcc7a1cb3e2bad33U,
  0xbe498dba3d66fac1U, 0x3d96865e3d80fce3U, 0x3e31f397be207b57U, 0x3dc0fb68bd4fd102U,
  0x3dbd97393dfafe65U, 0x3e2e5f6ebe403a0eU, 0x3d1196ef3c94fcc5U, 0xbdb7a126bdf3dad5U,
  0x3e0003e7be03c407U, 0xbbe158d73e38d3b7U, 0x3da05b503e058145U, 0x3e10af3dbd81875cU,
  0x3e031c2e3de4f860U, 0x3e67cb41bd346f83U, 0xbe63e406bb5d47b2U, 0xbdf1d59bbc41d156U,
  0xbe33613d3e12f5d5U, 0xbe213a8a3d00e389U, 0x3df32cb4bbf1665aU, 0x3e5b92d13d5ffe53U,
  0x3d6efb8abd8f1bbcU, 0x3d173475bede06d3U, 0x3d9f6cffbd994525U, 0x3d207b8ebd9cb483U,
  0x3dc206193cbfa741U, 0x3d4fc8283d7be37aU, 0xbdc354b3be0d70aeU, 0x3e24c76abdf5515aU,
  0x3dac24643da6dcaeU, 0x3e35c8973d462801U, 0xbe035928bc56af10U, 0xbd09a4da3e16e868U,
  0xbe2c119e3cc06e07U, 0x3d8aee3b3e6678e5U, 0x3da69c5ebe0633a2U, 0xbe245f713dc2c56dU,
  0xbeb3a551be3980f8U, 0x3dd5a2583dc690f6U, 0x3d624e89be653310U, 0xbe3a305b3dd9478fU,
  0x3d3e22f1bd964ed2U, 0x3c362928bcb52e77U, 0xbca11412bd142dfaU, 0xbd2a7ec03cf8daf2U,
  0xbca0faa6bda43963U, 0x3d8daf97bcaeaa4cU, 0xbd2bdd4fbd5e3782U, 0x3dbf40f8be064831U,
  0x3a6c8acabda37181U, 0xbd4fb6dcbe17418dU, 0xbd84ac5bbe938312U, 0x3d2e150b3d07e585U,
  0xbe12a1253dfc9bcaU, 0x3d8ffbd2bd599569U, 0xbe0e82aa3df777c6U, 0x3db13e42bd8defd8U,
  0xbdec6793bdb3ecabU, 0x3dfdff2cbdf95450U, 0xbe2e457dbd984694U, 0x3db7eb87bdc4e582U,
  0xbd98975f3de10cc0U, 0xbe7b39b5be43d118U, 0x3ab10efd3dd554a8U, 0xbc123cbfbc9ddeaeU,
  0xbe488941bd71be24U, 0xbc92df19bca82b9aU, 0xbd699f50be0b5bf7U, 0xbd200fbebe30d16aU,
  0xbd4921c7bdb22535U, 0xbd220d10be5f69c6U, 0xbc1bb0783d154843U, 0x3db6dc72bdfd76b0U,
  0xbdec86703ba63ec0U, 0x3d70c043be0faad8U, 0xbcf09e82bdde15f2U, 0xbd483a8a3c696babU,
  0xbe09ee4dbe43d411U, 0x3d30c400be07d0b9U, 0xbe8c10373c92e434U, 0xbddac04b3cfc5c96U,
  0x3d35b5da3db0b394U, 0xbe01f553bd6d87f6U, 0xbdf5351bbda9199dU, 0x3dcaba2ebdeb561bU,
  0xbe0de749bdcfdf76U, 0xbdc43496be1bb8caU, 0xbba96ad1bd8285daU, 0xbdf18181bee94dc8U,
  0xbd86818cbdd4af98U, 0xbe31fc26bd0e149fU, 0x3ca6ba05bde76ca5U, 0xbdfc98fbbb8608ecU,
  0x3be25f21be52005eU, 0x3db8c545bdc958f0U, 0x3d840328bc3fade6U, 0x3dad36b0be05de5dU,
  0xbca19481bd282f15U, 0x3cf56461bd3ca392U, 0x3d7d6af5bebdcc79U, 0xbd41d6e83d526f7cU,
  0xbe95bd92be178dfcU, 0x3c866d14bc4e9f50U, 0xbcaa40a3bdc527baU, 0x3d3e9fa63d934706U,
  0x3dbe0ab4bde3d47bU, 0x3d07655ebcec675eU, 0xbce312f33d8deb41U, 0x3d68f6c0bc593e12U,
  0xbd3e17363cf721c4U, 0x3deb66543dc5d023U, 0xbde495843db6c136U, 0x3ce24cb33dd8897eU,
  0x3d0a05dc3e391d0bU, 0xbe2ab622bdbae07fU, 0x3d006f2c3dde8659U, 0xbdddc8c23e20cbbaU,
  0xbea21000be24a114U, 0xbb419b1ebe601053U, 0xbe569626bead91ecU, 0xbc8cdb51be0b7463U,
  0xbd63030abd0e092eU, 0xbe0e55ae3d1fa8a7U, 0xbdacf6453e3e7bc0U, 0x3de43b1dbe0a9f73U,
  0x3d841c8f3dd7d6a1U, 0x3db633da3db07da1U, 0x3db486733dc5ba9cU, 0x3dbf79143e13f833U,
  0x3d2dc7fb3d86258dU, 0xbba6b6e93c744200U, 0xbd236b06bd0b5ec3U, 0xbe15afa73c3c74a3U,
  0xbdb3820abd58ba49U, 0x3dee65e7bc407a76U, 0xbd70f878be459ed4U, 0xbd8dad383c6a546bU,
  0x3d84f5633b8f8dc8U, 0x3cd3b2963d63d6c8U, 0xbda095433d5e0a0aU, 0x3dcd5db8bd8ca81cU,
  0xbd4f3cc03df5286eU, 0xbbcc9d743ced3cc6U, 0xbdc37a9d3dca62d3U, 0xbda102af3e2fc03cU,
  0x3c3faa7f3e1c88f9U, 0xbd3254d9bd506cecU, 0x3db4d141bd8f72feU, 0x3d7e3a723d221940U,
  0xbb82207dbdd5d6acU, 0x3ce9ddb1be5650eeU, 0xbda9b6183dd93fb0U, 0xbe03c0e3bdde7744U,
  0xbd038eaa3d952706U, 0x3e1085a13d8a5d5dU, 0xbd3402813db601e7U, 0x3e036c8ebd5d088eU,
  0xbd1e64253e1e9a68U, 0xbcaf0fd33dde079eU, 0xbcf889723d18f3d5U, 0x3d9076453d6c6498U,
  0xbca30ec23e423379U, 0xbdb95c21bd84f7dbU, 0x3e1e58c6bd898c87U, 0xbd38fb9a3e02350aU,
  0xbe198e07be06ac80U, 0x3e08c758be810985U, 0x3c2402fdbe068b98U, 0xbdad4d93be619dffU,
  0x3cc216b2be0499d4U, 0xbb78b226b94c69dcU, 0x3d456161bb9a3fdcU, 0x3d8104d6bca84b99U,
  0x3bf9a8d83d8631c6U, 0x3d95edb43daa1094U, 0xbc71b6ecbda5d86aU, 0x3d8f76333d1df138U,
  0xbd4575283e0bf61fU, 0xbd93716f3d07c251U, 0x3e0452033c92868fU, 0x3d0441a6bd1476c1U,
  0xbd6a54ebbdeca359U, 0x3d53db17bd88106dU, 0xbbe58a94bdc85f22U, 0xbced0d1ebdd135e6U,
  0xbbe1975dbdb1a4e9U, 0x3d122c13be1c0800U, 0x3cb4030b3d568f05U, 0x3e0b75183d7b68ebU,
  0x3e041f6c3de5d809U, 0xbe66a6d1bd0cfde7U, 0xbd9cd9debd72c40bU, 0x3b3b531fbd71050bU,
  0x3e3ecfda3d5add6cU, 0xbde7a045bd6d7dc6U, 0xbd91d38f3cff93fbU, 0xbc965301bd36690eU,
  0x3e619789bd25343aU, 0x3dae63eebd072269U, 0x3e1fe2673d1f23a3U, 0x3d3f6b963de8bd29U,
  0x3bdcd5033d84d4bcU, 0xbdcbec46be717456U, 0x3d4863823d70bba5U, 0xbd8d95e53d969312U,
  0x3b1b80163e110fe5U, 0xbe646b093cb9acb0U, 0xbe52ba853db91bdeU, 0x3bcc5dc43bfd0c7bU,
  0x3e723e2b3ddec7f5U, 0xbd83a45cbb7bd47eU, 0xbe1570713e14a2eeU, 0xbe3561b53d8ba6c7U,
  0x3dbd1cc0be14d9c2U, 0xbdfd92e53d001bf0U, 0x3d1fee953d140cafU, 0xbe0bbdd23d626d55U,
  0xbe0faedd3cfe4f89U, 0xbd058468be6fda42U, 0xbdf1d7d13cd63049U, 0x3dc43b1fbdf23a2fU,
  0x3e009c833d18b200U, 0xbea3ab5c3cb63b02U, 0x3dcf51e0bde5e1edU, 0x3df2f5d83d8b89b8U,
  0x3dbd6beabaf4ed50U, 0x3ce76b06b9a91b84U, 0xbdf4bb0f3da40c50U, 0xbe40274f3d91ce52U,
  0x3d0889533c5c4aecU, 0xbdbb414ebd13f78aU, 0xb8e5d7c0bd610575U, 0xbdc5c10e3dcc0e36U,
  0xbe3cb8b03d47f0c1U, 0xbd184b98be548757U, 0x3c28e1aa3ddf5931U, 0xbcb385c2bd6e2370U,
  0x3c9d212a3cc05cedU, 0xbe3d4b543d722181U, 0x3dfdd547bdf38cadU, 0xbdf2ca493c49f5f5U,
  0xbca57700bccfdd2bU, 0xbccd00a23dadeb8dU, 0xbc59ea4d3e3da1e9U, 0xbe22a49a3d5aad2dU,
  0xbe202351bd8f94b4U, 0xbc1a58023d6f050dU, 0x3d57cd7f3e0b3924U, 0x3cf96d413d9e06f6U,
  0x3d7bdedc3cbeb9c2U, 0x3d37686c3d1393aeU, 0x3d5b84973e015500U, 0x3de17b07bde176c9U,
  0xbd66a3d8bd88459cU, 0xbd91e0183d1b0ee3U, 0xbd3956b33d5808ddU, 0xbe14c92d3d92f04fU,
  0xbb1322863c207955U, 0xbdb54ef73db3b925U, 0x3daf74e43d57c809U, 0xbd385bfcbd0ebbe2U,
  0xbe85bfc2be01c62aU, 0x3db2a049bd076bb2U, 0xbdcac24d3da7f1a0U, 0xbced0cbe3e7014b8U,
  0xbe95c332be5dab31U, 0xbe4a69fbbdff9d61U, 0xbed7039fbe315e8cU, 0x3d73b181be06f4d2U,
  0xbdec08403d9fc438U, 0xbe82e4783ca9f24dU, 0xbe965d7e3d5f2870U, 0x3d4abb67bd5bfb9cU,
  0xbd844656bc2c0895U, 0xbe6a3b52be587b4aU, 0xbe6c6c3d3c87c8ffU, 0xbe2dbd1abde929caU,
  0xbc3202dbbd3a7c72U, 0xbbcebb67bd9ad9b1U, 0x3c39fccbbe9d057dU, 0xbd053ee73deba9d0U,
  0x3db7fa8bbd73d91eU, 0x3cac4d51be6cb438U, 0x3da69f6fbc8d30f4U, 0x3deb45d8be70af5dU,
  0x3b397d4a3e1a6f1dU, 0xbc8bb935bd8fb88dU, 0xbe0bdc113d9746fdU, 0xbe78f5433da47b56U,
  0x3ce25f603b077648U, 0xbe578a203dd06c1bU, 0x3c952286be860a72U, 0xbe88a783bdadc962U,
  0xbf0478f1bde1d5fcU, 0x3e184f25be0990f1U, 0xbe1d29f53d9602b8U, 0xbe3f9602be9881e1U,
  0x3e1071ddbe412329U, 0xbc46707c3da7dfcaU, 0xbe85263abd8b9df1U, 0xbe0f504cbe3eab53U,
  0xbe17fe0fbe55e1f0U, 0x3e4332f23d6abd16U, 0xbe8c88adbcbc0c8dU, 0xbecef001bdc4de8bU,
  0xbebc6b7fbe00e3f0U, 0xbed3ea75bd8ed5e1U, 0x3c25d8dcbe3966e3U, 0x3c8b71953d6a0460U,
  0xbebb4ba33d102cd9U, 0x3dd5cc8dbee4d50bU, 0xbe0e0057bdd9ad03U, 0x3d8e7bbcbebd0ceeU,
  0x3e3b913a3e2d2a18U, 0x3dc33ade3e770ef1U, 0x3bb4a98cbdc6ec46U, 0x3e077687be5f8589U,
  0x3de3992cbd59f97cU, 0x3e551c6bbd2f83f4U, 0xbe4c83773dcb0ed2U, 0xbdf9016f3d8e83ffU,
  0xbec112073d8abdbbU, 0xbe91a30e3d54aa28U, 0x3d2e2446be5530deU, 0x3e5c9c79be2d3b0cU,
  0xbe221b543e4f4156U, 0x3daadc63bf08f1beU, 0xbcf9591aba11c7bfU, 0x3e3119d03d577ff3U,
  0x3e6e3133bd31c96bU, 0xbc8b35193e96db3eU, 0x3ad81107bdd3d83dU, 0x3e6b88e33e06bb39U,
  0x3d98fd813daceb85U, 0x3e637f013e23bfbdU, 0xbd339208bcdbc7a4U, 0xbe2fb0613cb3d677U,
  0x3cc6d4c13d9c2e57U, 0xbe2bff483d8cf14cU, 0x3e8304cabdf00388U, 0x3e23207e3e2e186eU,
  0xbd73f9c6bcffeb1cU, 0x3c1518ffbe8980fdU, 0xbdeef5b93e916e2fU, 0x3d4041b63de4f8d6U,
  0xbd4eda49bb88b1ddU, 0xbe64312bbc18dd25U, 0xbdb76a8d3e300a16U, 0xbd8919c33db320faU,
  0xbddc8044bd105651U, 0xbdbff1313ccd0d25U, 0xbe38c7673d7e07bdU, 0xbdbc53ebbd3f687cU,
  0xbe7ae71e3d7bea2cU, 0xbe64334a3d1b7e5bU, 0x3d5c507bbe197dccU, 0xbe0254063e0c619dU,
  0xbdccc85dbd97f657U, 0xbda569eabe9ad9d6U, 0xbe2d276fbe87a998U, 0xbdbf106dbe52968cU,
  0x3c1dcf3dbcb01b9fU, 0x3c318fcc3dcff9efU, 0xbca77692ba94421aU, 0xbc89de113d23be8dU,
  0x3d504e0f3e1a0964U, 0x3e007e303dddc63bU, 0xbdc8a1993db29a85U, 0xbe3576513e08d7faU,
  0xbddbf358bc117db6U, 0xbe38d036bcc8ae6eU, 0x3cfe470c3da01b1eU, 0xbd472fd23cdd57cfU,
  0xbe10e5b63d5391d4U, 0xbcbde111be00c5afU, 0x3a9e8a58be0ec214U, 0x3c2f9305bd760aa1U,
  0x3d679fbf3e304fa3U, 0x3e10fc253c60a00fU, 0xbdaded5e3e08d3d4U, 0xbdde92cabd0564c3U,
  0x3c341c94bd82d797U, 0x3df12aebbd5d6ad4U, 0x3d00cac03d2c2d10U, 0xbda043adbc3b1d38U,
  0xbd832e773d52d3b5U, 0xbe1cdaa13e486585U, 0x3d90374f3d5de0f4U, 0x3d4f15f93d16dcceU,
  0xbe09dd61bce45aabU, 0xbdb4559fbe88d476U, 0x3c892fac3d123572U, 0x3a99f344bd82f141U,
  0x3d8e37bf3e10895dU, 0xb9e83fd63dfebf52U, 0xbd1ac20a3cfdc2d4U, 0x3d5a15653ced4ac6U,
  0x3e40ca693da19580U, 0x3d97a4ac3b756dd9U, 0xbd8cdc6e3c358b98U, 0xbe4c4f5f3d79fd41U,
  0xbe814152bcfe417bU, 0xbe3810fdbc973976U, 0xbd1f2fb33d3f35c0U, 0x3a5820bc3df2b931U,
  0x3dc9f2973d210b25U, 0xbc5f78803d502816U, 0xbd21b8233c2f9365U, 0x3bc95666be22583eU,
  0xbbe1a3473e06fffcU, 0xbdbe92a63d69389bU, 0xbdf4f5c63e2cbb91U, 0x3d56777d3d3c0d40U,
  0x3da7483c3d5fee9fU, 0x3e2c3d313da60d37U, 0xbe04853a3d949306U, 0xbce52b1cbd697741U,
  0x3c46c542bcabeebaU, 0xbea7cc4bbcbf86caU, 0x3df4497f3cc02e12U, 0x3d3be1c03d580170U,
  0x3e708ecabd63261eU, 0xbd9fd993bdfa00f2U, 0x3c98aa1b3e0a1502U, 0xbd7e2808be026a04U,
  0x3999bbec3d7fd485U, 0x3d29a3c4be68d127U, 0xbafcd88dbde6ca95U, 0x3d4b41ddbd8bdc4fU,
  0xbce5905c3ce4a5eaU, 0xbe14e619be156acdU, 0xbe7efec63c11b072U, 0x3dc92a5fbde8d4baU,
  0xbdd303b7bd1921e6U, 0xbe1596053d2be231U, 0xbe0a76903e17cc87U, 0x3d962ad4bd4549d9U,
  0xbe289c453d3e626dU, 0xbe3cfe7abe8422b8U, 0x3cc062f7bde2db6bU, 0xbb92f070bd95d789U,
  0xbde142ba3a810ac2U, 0x3d75acdbbe2fa4d2U, 0x3da235b13d4fa683U, 0x3d110f4dbd9aeda0U,
  0xbe157001bc3cf638U, 0xbe40cd30be19ebc8U, 0xbe1e0870bbe3c31cU, 0xbe336cc5bd511809U,
  0x3c71d1d5bdd7c83fU, 0xbdab8773bd048060U, 0xbea6acbd3d0cbd8fU, 0x3dea0e89bdd954b9U,
  0xbdff3c9b3d906bd9U, 0xbda93421be9a98a1U, 0xbc7c3dfbbe355528U, 0xbd45ae7ebdd2d446U,
  0xbc071c1f3d0ec9d3U, 0xbdb37f74bbf7ad81U, 0xbdfa515cbdb9bd6cU, 0xbd0f28513ce25335U,
  0xbd18b48f3d665c19U, 0xbe1d3bb33bc53c28U, 0xbe9c03b6bcf3407aU, 0xbe2854ddbd4d4240U,
  0xbe01585c3d8cbd7cU, 0xbdd7f257bccd04adU, 0xbeb728983de21450U, 0x3dcd2541be06b599U,
  0xbc532202bd1c8c8eU, 0xbc84f49dbec9c7c8U, 0xbbc7ecbfbe856ff4U, 0x3d4859da3c8bdf30U,
  0xbd8fe39b3b12edeeU, 0xbd5aeb10bd4ffeceU, 0xbd31bebd3d60d06dU, 0x3d81601cbd8afc5eU,
  0xbd308fb23d9e0c65U, 0xbe19c92abd9ed6efU, 0xbeacb409bc108c8aU, 0xbe2592ffbdd7272dU,
  0xbd78c2e1bdd6d262U, 0xbe5eee37bd7fe6c6U, 0xbe85adec3dbed180U, 0x3dd68ff13dbcbbe0U,
  0xbd920a313c4a37d3U, 0x3c9ae525be922297U, 0x3cfe7bc5be4701dbU, 0xbb029fa6bd528df1U,
  0x3d435e43bd6f29e9U, 0x3c25170ebe01abd9U, 0xbde3ef793dca916cU, 0xbde3bdadbdb206b8U,
  0xbd251d57bc892d76U, 0xbd44df933c0fd444U, 0xbe81e23d3bfdf3e5U, 0x3dc5dccb3d03d990U,
  0xbe8121ba3c882de3U, 0xbe3e72503d5da5b3U, 0xbe6570d33dd79705U, 0x3d988d133d5435f8U,
  0xbd740c183d0d7838U, 0xbda6f7fcbedf433bU, 0xbe0f938abe99054fU, 0x3d0ae9c93dcfefc3U,
  0x3c475f81bbb40377U, 0x3d337ae2bc6b83ebU, 0x3c1f03fe3d99d02bU, 0x3d14ad563deba43eU,
  0x3e1999f4bd16f061U, 0x3cd080ebbddeab92U, 0x3cb361e23d403659U, 0x3db4b82abd26a857U,
  0xbcfc5acabdcd0b02U, 0xbd0a4d56bdf77f43U, 0x3cdad0bdbd93dd57U, 0x3d1581783da02ec1U,
  0xbd79bb11bd974801U, 0xbd4081f03d96ff93U, 0x3dd416eabe3814d6U, 0xbd5a967b3dc26f64U,
  0xbde197b6be03e20cU, 0x3d9db084bca7ae83U, 0xbbded569bc99b3a7U, 0x3d8ef6f53d9314e6U,
  0xbdda09ed3d41447aU, 0xbe051955bc656434U, 0xbd9d68a03d52bc90U, 0xbc933a1b3c91b42fU,
  0xbcd0855bbdcb9493U, 0x3d20db93bd851305U, 0xbde48a4e3c22f782U, 0x3cee7a87bdaa1c10U,
  0xbb039666bde81c39U, 0xbca57138bd8acb0aU, 0xbd9d9664bdfe77e8U, 0x3db5664fbe085f8fU,
  0xbdc56cf73d238f29U, 0x3a4925ecbd1c60f9U, 0x3d955d65bc2b0993U, 0xbd78a06dbdb9ba7bU,
  0xbde6cce6bd5278a0U, 0xbdff8fedbd404374U, 0x3cdeb5ea3d394c8bU, 0x3d4025a13ce60df0U,
  0xbd97f12dbd80f983U, 0xbd4f7ca4bd1190d4U, 0x3db364e83d4a9dd8U, 0x3c173ec53d51f2ceU,
  0x3d76e7033c9d05ceU, 0xbbe85fec3c81e834U, 0xb87f9e0abd3faeecU, 0xbd684945be137b6cU,
  0xbdc74b373d9f39edU, 0xbdaf3fcebd8ea36fU, 0xbc7d12d03dde9351U, 0xbd6d004c3da54d31U,
  0xbdbbf07ebd8aaa00U, 0xbdc78537bdd4feb4U, 0xbe0ea856bd34cf96U, 0x3dfc0e15bd1b551bU,
  0x3ccb3dc13d290b99U, 0x3d03bd783c52be9eU, 0xbd9d99d43ac37a80U, 0xbe22112abd53485bU,
  0xbc550e663d4440faU, 0xbceabaabbdd77b71U, 0x3d1a155bbdb12e73U, 0xbde300f83daad443U,
  0xbcc852a439e3d8fdU, 0xbdd324fa3d73124dU, 0xbba3b65f3c8b4469U, 0x3cd809a3bd199368U,
  0x3dc3eb9b3d4a9d23U, 0xbdd6cc66bdb8f1d0U, 0x3c7e11a4bce66bc5U, 0x3d7d9a063d8bcf27U,
  0xbda623013c9e4b60U, 0xbd7a15d4bd1552c9U, 0x3caa3007bd302257U, 0xbe1ffec83d0cee8eU,
  0x3d1725eb3bf6014dU, 0xbd5a7a79bdb0ae67U, 0x3d8f107cbe19952fU, 0xbd8d7dacbdb4a40aU,
  0x3da3e6abbd75b9a3U, 0x3b58820b3d2bc0bdU, 0x3b433cb43e0b0284U, 0x3d8f6a363cde616aU,
  0xbddcaaea3d3d87bcU, 0x3e0996503dc14d78U, 0xbd813da6bdcffb37U, 0x3cc1ad253bca47b4U,
  0xbe1664313d234dc6U, 0xbde280e9bd7e26beU, 0x3df71150be3a55f1U, 0x3c71e6b33cdb891eU,
  0xbd6deb43bdb63e0eU, 0xbc12b02abe3c6f00U, 0xbe4a466d3be05abcU, 0xbdb5ca84bc284ecbU,
  0x3d7cca123c0ff04fU, 0xbdecc42f3e12bcbaU, 0xbd9b0539bc79e24dU, 0x3ddb9fe6bdd47508U,
  0xbd6b2ae13d08e566U, 0x3bd23fb73cbb90e1U, 0xbcf94d453cdc5b81U, 0xbd97943bbd646a3fU,
  0xbdd6a4adbd3dc4edU, 0xbe2845c63d90fbc0U, 0x3d13b3f6bdc77f0bU, 0xbe050f1dbd6688e7U,
  0xbe6b05d8bdfc5e86U, 0x3ddf1e73be3f4bebU, 0x3cce3cc7be165357U, 0x3d0bf8733d9f9d2bU,
  0x3ce228c4be0496e5U, 0xbd8eabf03e0c1c14U, 0x3b508e783dde7409U, 0xbc015f93be030bedU,
  0xbb742af3bda85dacU, 0x3d829a183d80ec5dU, 0x3db3ece4bdbc3f1bU, 0x3cbd994ebcb65280U,
  0xbd3214a5bd172b32U, 0xbdcbb2a8bb028112U, 0xbd952af2bde9197fU, 0xbcbc9df93d0e3b00U,
  0xbd654234be059cdaU, 0xbc80ba3dbe19f715U, 0xbe115d7e3c66a096U, 0x3d80cf72be3f285fU,
  0x3d0444883d20e514U, 0xbd5850463da46797U, 0xbd6ae66c3d7ff45aU, 0xbd5e988fbdf273f5U,
  0xbdaf9839bdd4507cU, 0xbba121833d6f5606U, 0x3d2d9264bd969bc2U, 0xbc8156b83dacb121U,
  0xbe5d84b03dc4636aU, 0xbbff1399bd9dd1e4U, 0x3d3b48dbbe110cfeU, 0xbd0e83a2bbd55748U,
  0xbe10a8193d8f21c3U, 0x3d4e0385be31f7efU, 0x3c4778573d349ce2U, 0xbd9c075ebe72cebcU,
  0xbd4a53fabcbe88dfU, 0xbd16667c3db94aabU, 0x3db92cb63de4a606U, 0xbda4e9b0bd91b50eU,
  0x3c3851613ddfbce9U, 0x3e2a45d13d6bd0d8U, 0x3d937a2d3dae976aU, 0xbdde8bb33e05c5cbU,
  0x3d9e0d0f3c4c0fb2U, 0xbe1fc23e3dee164cU, 0x3d88bf25bcc74d10U, 0x3dca0a1c3de0fb0dU,
  0xbd8747c1bdeea4b0U, 0x3c23af4cbd4371d4U, 0xbda11b6abcfe4e48U, 0x3d0f8d29be6fe4b2U,
  0x3de79be9be4a8f6fU, 0xbd2c09c93bfc97a4U, 0xbdd63a4abe623d7bU, 0xbd268412be070268U,
  0xbe52aa1cbd225bb9U, 0x3d8c9d483e2d0048U, 0x3d017de83d14f231U, 0x3db859c63c48cbc3U,
  0x3b3dcf293d28f372U, 0x3d75889b3d55bd6aU, 0x3cc42c123d802825U, 0xbd70c2053da67914U,
  0xbe67aafbbe067d78U, 0xbdaa12a5bd0e056eU, 0x3d64c04dbc9b90ffU, 0xbe2bca423e10c064U,
  0xbdb823e0bcbf9354U, 0xbe1da8493c099d44U, 0x3dd092b4bdc617dfU, 0xbeaa4c5fbd645505U,
  0xbe097221be4bb9d6U, 0x3decdb8cbd382ab9U, 0xbddbc527be136704U, 0x3d375272bd294c61U,
  0xbe1fe8ffbded4806U, 0xbdd58f44bd8b8486U, 0x3d049dae3cc9d521U, 0xbbb76855bea928d1U,
  0xbe7e37e53ce5a4ebU, 0x3d853872bdca3648U, 0xbd3f065ebe49c37cU, 0xbd852320bd704ae8U,
  0xbb6acf383d6f795bU, 0x3db2e637bd7a4660U, 0x3d816e9fbdb9db74U, 0xbe2388b63bd3cf2bU,
  0xbb15c3f33da1dfaeU, 0xbe199150be7ee30dU, 0x3dc419ffbe393b51U, 0xbc47c7a3bbbdbf2bU,
  0xbed99ea1bd2dc631U, 0x3e0da2173d877a61U, 0xbe04a3b73def7f44U, 0x3b65232bbcc16f65U,
  0xbe0994a23dc9d5b0U, 0xbe1ed3263d0d07deU, 0xbe00aaa9bdbfa6b9U, 0xbd328d743e47af7bU,
  0xbe00fb863db302d3U, 0xbd7fdc69bd9d186dU, 0xbc2327f03d58c085U, 0xbdd023f4bbd5b39dU,
  0xbe28d0553dce3afaU, 0x3cc076193e24990fU, 0x3dd1f057bd76f48bU, 0x3d5ec74ebe58c5eeU,
  0xbe19aaddbdd7938fU, 0x3e2d38d5be06b67dU, 0xbdb8fbdebce2f51eU, 0xbe2e0da33da311d5U,
  0x3dafafd23c61d8c7U, 0xbdaa46e43e2a37f4U, 0xbd0c517c3dea4448U, 0xbd8ff6083e611335U,
  0xbe38a4eebd1d33f7U, 0xbe323d94ba6c49aeU, 0xbd341c923e6b19feU, 0xbe5e77bebd424254U,
  0xbe13c35d3e15171aU, 0xbd83e7223c538ad9U, 0xbc13d554bddee03aU, 0x3cb42042be77c5fbU,
  0x3ca4d095be8a4223U, 0x3d4e45c7bcb8ce30U, 0xbded78a53e621251U, 0xbe238af7bc71ae09U,
  0x3d9bbbc2bdd4b804U, 0xbd9f349f3d37cd8eU, 0x3d9cf8eb3d90a209U, 0xbd64c23abcb9b67eU,
  0xbc4118f83e396498U, 0x3e2496b5bde12bd4U, 0x3da650ecbc900e9bU, 0x3dcf0403bc2a190cU,
  0x3e25cd273e1638a0U, 0xbd537e183d33dccfU, 0x3da542ddbc099d1eU, 0x3dd5242d3d85e77aU,
  0x3e4bf5e23dc8ab5bU, 0x3cbcc7f63d9c78f6U, 0xbe079bc9b96c40ebU, 0xbe3b1b7f3b339d1eU,
  0xbcbc131abd34f852U, 0x3d60692a3c96372eU, 0x3e14739b3cf9945aU, 0x3d9f83863dec0c9fU,
  0xbdb823bc3e0b7d7aU, 0x3e5354c1bd915281U, 0x3d8eb0e0bda9fe70U, 0xbd6c739ebdd10af2U,
  0x3e2acac3bc2484d6U, 0xbe795810bacb1234U, 0xbd689c8e3d88a07aU, 0x3d64fa41bd2848bdU,
  0x3e9e43193dee393bU, 0xbe169aa33df68d9cU, 0xbe010cc03e00135aU, 0xbdfc6b793cd9fccaU,
  0x3e08a36d3d9b577eU, 0xbe2a39d2bdc8f239U, 0x3dc81c893d18a7a4U, 0xbd51f01d3daa35faU,
  0xbd6a83383d624dd5U, 0x3daed052bde1b3d8U, 0xbdc78d5a3de58a7bU, 0x3ddc34113c2556c7U,
  0x3d8c9cd83d925306U, 0xbe970d07bdc6463eU, 0xbdbea96fbc802b89U, 0x3d1d76d33d95478bU,
  0xbd1b34b13de93999U, 0x3dd32b4bbdfd74d0U, 0xbe3fa9003e160e54U, 0xbdc6d848bc932835U,
  0x3d2398c9bce90c36U, 0xbdc790e43dff02eaU, 0x3bf2c044bd195c69U, 0x3ce6ca2f3d8a824aU,
  0xbdce62f1be065f8eU, 0xbdbe3b2fbdf1c2d5U, 0xbd25944b3c0b0270U, 0xbdcaa937bd85eeb3U,
  0x3c35b5eb3e12c56fU, 0xbe84624cbd52a577U, 0xbdb0a09dbd42c940U, 0xbae800f6bdbef1b1U,
  0x3d7d8b873d9ea09eU, 0xbc2a843cbd5780d0U, 0xbe2811b23df587fdU, 0xbd580a0c3d808f09U,
  0xbd8ed52abda5e9d8U, 0xbb4bcce63da3166fU, 0xbdb3abe43df22ae5U, 0xbc98284a3e086102U,
  0x3ce90834bdd1028fU, 0xbd371f4bbe516bb3U, 0xbca5571cbd35d65aU, 0xbbfad484bd18f745U,
  0xbe5287ad3db43603U, 0xbe8795fbbdaaa7f7U, 0x3b8a2cd73d7dfd53U, 0x3dc15932bd302822U,
  0xbc241c16bd541c08U, 0xb953ea603da1b2b7U, 0xbe1516463dcb224bU, 0xbe3e42c93dfcadd4U,
  0xbd886ef8bdb47037U, 0x3d9bb03cbe38798bU, 0xbd2cde243dabcbc7U, 0xbd3cd8363e21fa20U,
  0x3d17ba863dbd7e3fU, 0x3ce93ded3de208d0U, 0xbd2029023e0d5946U, 0xbb8fa0193d0f3b53U,
  0xbdbb6e313d3eacc2U, 0x3e1361e63db978b3U, 0xbdc3a83b3da1f3a7U, 0xbe28239d3ddd3840U,
  0xbd0ef72cbdb69458U, 0xbd9ae88c3e83f8d4U, 0x3ca8decbbd82f28aU, 0x3cdeb2d63e10bd82U,
  0xbdb92fbdbd9b49cbU, 0xbd967687bdf4e718U, 0xbdafc7173d9405a4U, 0x3c85d67c3c6d43a3U,
  0x3e1020043e8759b9U, 0x3d6bb8953d99d891U, 0xbd8076993d82fc64U, 0x3d36b2cf3ce63654U,
  0x3d9937e93d9a71c8U, 0x3e0dc50fbd611ed0U, 0x3cb255f83e236ea3U, 0xbe3a7ebd3dbb939cU,
  0x3e1eb3ff3ceef215U, 0xbca619503e2cf765U, 0x3e0db0b53d577de6U, 0xbc98827bbd31cc87U,
  0xbcbdecaf3dce7357U, 0xbcee2a58bd09aa1bU, 0xbdb6f1c23d119104U, 0x3d80f6103c9178d0U,
  0xbc3e2ef3bd494ba6U, 0xbd7baa9bbd56b39fU, 0xbd3982d23c908d40U, 0xbddb5f8dbdb48034U,
  0x3de9af043cb700dfU, 0x3d8d3025bdea485bU, 0xbb0fb7153dd8b157U, 0xbd1fabaabd760490U,
  0xbda059283d63b6e9U, 0xbdb04b6cbd736d1aU, 0x3db212b2be74b86bU, 0xbd869457bdbde446U,
  0x3d29afafbd58186aU, 0xbde71faabe68d60aU, 0xbd8820d63d9e8c01U, 0x3c87554cbe3c0670U,
  0xbdd3e5c13cb98acfU, 0xbdd97bf1bdf27bf5U, 0xbe0526f63c1221a3U, 0x3deffa4dbdbce469U,
  0x3c503bd3bdaa50b2U, 0xbbc394b2be40a9daU, 0xbcb5ee5f3c54aeedU, 0xbddb1bf33c7d3123U,
  0xbccaa62c3da7100aU, 0xbe610738bdd1c68fU, 0xbd661c4fbe2cc09aU, 0xbd7afbb2bd829628U,
  0xbdac85483b86a36fU, 0x3c6c0036bec0c707U, 0xbdb913763dc36470U, 0x3c49276bbe4750e8U,
  0xbc95dcde3dd29e05U, 0xbd12cd51bde0e96aU, 0xbda933f7bd152224U, 0xbcc6e7fbbe37e150U,
  0xbda6f2cebd7b4607U, 0x3d83f3b13dafb6f1U, 0xbe2c6a95bcd93b5fU, 0xbe097535bdf11b71U,
  0xbd6b0a16bd3d072eU, 0xbe3b650dbce644caU, 0x3c9bf159bd388117U, 0x3cc369ecbdd42227U,
  0xbcfe6c673cbdca97U, 0xbe13d94bbea857bcU, 0xbe188a9ebe10f646U, 0x3e127223be78be06U,
  0xbeecdbe4be1eab3dU, 0x3e91f91bbed36a14U, 0xbe028775be228f81U, 0xbe2a2cfb3e85e3fcU,
  0x3e6d64b5be066982U, 0xbeb09900beda0d82U, 0x3c885fbabdbc5564U, 0xbd0fbab4bd1cd58cU,
  0x3edfcb64be6e1bd9U, 0x3da940a3bd473c66U, 0xbf1d7eb1be9e1d78U, 0x3de4d8c3be8664d3U,
  0xbdfaf1003ca1e8b6U, 0xbe8208a2bda778bfU, 0xbc4dc7db3cc5afddU, 0x3e828407beb4820cU,
  0xbe6bb179bdf20604U, 0x3c265ff0bed73c38U, 0xbd4a2844bd44aea6U, 0xbe188e543d27dd6bU,
  0x3e2fd55dbe0a65e9U, 0xbed48238bdb4aeffU, 0x3c342c81be0466ccU, 0x3d380402be8473f3U,
  0x3d88cd76bece798fU, 0xbc04983dbdb016d0U, 0xbe3dc4203ea14ccaU, 0x3e25f1af3bf9e3b6U,
  0xbe8843f3be1b1d15U, 0xbdd1164cbc695978U, 0xbc05d2d3bd9a0542U, 0xbe4ce980be2d0367U,
  0xbe185f30be8fb053U, 0xbdee8983bec57e79U, 0x3e0b0964be511ed2U, 0xbee020a8bdd0562cU,
  0xbd9cde04bd918b31U, 0xbe4af68fbe5300e5U, 0x3e514e55bde0a146U, 0x3d1c2f16be267598U,
  0xbd7bf263be4ebc64U, 0x3d807c1dbe19840eU, 0x3e15c5af3db9970eU, 0x3cd306fcbda18c09U,
  0xbf08ac48bddd71a1U, 0x3d238b5d3d79e04dU, 0x3d352e643df1a171U, 0xbe220f36bdbb7708U,
  0xbde3e0dfbda2ccadU, 0xbd96c6e2bedfe6fcU, 0x3e7aff18be981584U, 0xbe890a8abebb6332U,
  0xbec6a4e7bd21987bU, 0xbd102abdbed911f9U, 0x3e50e4563c520b73U, 0xbd651ea7bf3fb97fU,
  0x3e0726a0be6cc6d4U, 0x3e6c8fc5bde8c124U, 0x3d6fad53bdf3b8f1U, 0xbc99af19be3cb1aaU,
  0xbeac8e38be28cd68U, 0x3c98b45f3e974102U, 0xbdd6ef2e3e2de897U, 0x3de5d8b3bc4f838dU,
  0xbe04c87f3e0f48a6U, 0x3d64e647bec4fc9dU, 0xbe0bf42ebea26c2dU, 0xbed1f344be224247U,
  0xbe961d6cbdd25eaeU, 0xbe548f63bcf9d595U, 0x3c0bc534bd368e5fU, 0xbe502185be8ae221U,
  0x3d8c22f5beabd4b8U, 0x3e72465fbe9c2377U, 0xbe1b412f3d1bc847U, 0xbe9419c53e4dc649U,
  0xbe876cb63e12b32fU, 0xbe859bd73e592f7dU, 0xbe0b465b3de5c979U, 0x3d7220adbe3e288eU,
  0x3d9ba50bb9ab0da9U, 0xbe65313fbdd89e0cU, 0xbdf22b033cabe989U, 0xbbfd15fd3d812b67U,
  0xbcd114febdb0fb6dU, 0x3cde744d3d1c4e5eU, 0xbe20d5f0bcfaec2eU, 0x3da2f9093d92d188U,
  0xbe544dc1be0c602dU, 0xbdfaf194bc8f7cdbU, 0xbe0dcc10bcc53745U, 0xbe110313bd9e1f2eU,
  0x3d4d57a63c3846aeU, 0xbcf51935bd939fa2U, 0xbe0bfcebbcb15536U, 0xbe02eb5abda74c56U,
  0x3d046d8fbc2efddfU, 0xbc6aeef6bd510a6fU, 0xbd9d3b5bbdf8034cU, 0x3d7b79f5bde9131cU,
  0xbdd3775ebdd72b8fU, 0xbdc769953da1bb01U, 0x3caacd9e3ccccb68U, 0x3d24d87bbdbce788U,
  0xbde82384bd4e42d4U, 0x3d2576fdbd570bffU, 0xbd72c443bdc8eab7U, 0x3d12a339bd8e7053U,
  0xbc1e6468bd939e68U, 0xbcd2cdb53be1e77eU, 0x3ce2a62dbd4f7c76U, 0xbdd8a0a6be970c8cU,
  0x3d81c449bd7ed14fU, 0xbb96bab7bda67626U, 0x3dcd4e263d595882U, 0x3d5fe197bd49c567U,
  0x3d8b88943b8985a2U, 0xbdec36f6bbbff7ceU, 0xbd95ddb9bd8a93d9U, 0xbc471772bd489002U,
  0x3d5de9893cc49572U, 0xbdbdd8fbbd8acb69U, 0xbde5c19d3d94ecb7U, 0xbc8a41febe0e6652U,
  0xbe1788a8bc01350fU, 0xbde587e4bd763986U, 0xbd31a996bd2abbf9U, 0x3d3f6b023e0787bbU,
  0x3c1567e1bddd6f9dU, 0x3da9a49abe06876bU, 0xbd557c1abd8c81acU, 0xbe3eb4213d853e00U,
  0x3dbd4a5b3c748ba7U, 0xbe02e0cc3dc72a08U, 0xbdd0ae93bdbaa4f9U, 0xbde03a6abbea1263U,
  0xbd15ff61be049f5cU, 0xbc195673bda031d3U, 0x3d022171bbaa0a69U, 0xbbe3a87a3c796c17U,
  0xbd83b62ebd64d0acU, 0xbdee7fafbc5c03d6U, 0xbd50d9d33d106316U, 0x3e07a978bdb18043U,
  0xbdb8e64fbbc13b33U, 0x3d3fcb643db76ae2U, 0x3bf6326cbd0414a5U, 0xbd7ed7543db5e29bU,
  0xbd8d26fe3cf1e4feU, 0x3d585c533d0fca3aU, 0xbcf672d1bdb7c8d7U, 0x3df676ab3d335a98U,
  0xbd9b429fbdd45712U, 0xbce2a8c03d23f3edU, 0x3dc28d77be12f88bU, 0x3d5ff5033c906e3fU,
  0x3d054164bda470f8U, 0x3dc89f86bddf810dU, 0x3d9aa3583d60886bU, 0xbd1c64d0bde9d243U,
  0xbea31ae5bea20fbdU, 0x3d53a372bea7e2e6U, 0x3d07ef70be282a8dU, 0x3dbe014d3e50f994U,
  0x3e5c83cf3e42dc7dU, 0xbea56ebe3d102185U, 0xbe39050dbc866fbdU, 0xbd1aed71bd3dc7a1U,
  0x3e5197a6be3aaf05U, 0xbd026b0fbd7cdb6fU, 0xbe94beda3d951f42U, 0x3c0828c33de2a8f0U,
  0x3df05881bd030667U, 0xbe8524af3dfa97ebU, 0x3e161b1f3df4a2aaU, 0x3d05b4cc3e6566d1U,
  0xbe2a11babdbd5f54U, 0xbdd3fb62be886c59U, 0xbd5ddf4cbd158b5cU, 0xbd9df0993e088839U,
  0x3e16d5a63c5ae7edU, 0xbec35f34be6d447cU, 0xbdca92de3da0910bU, 0x3e3e148abd65e124U,
  0x3d61f6babde83c1bU, 0xbe2c2e39bc8c7db6U, 0xbec53dd23e92e7d1U, 0x3c398ee5be338decU,
  0x3d9451eabcbc6c00U, 0xbe1c13dcbd01877eU, 0x3e52e4bd3d89175dU, 0xbd7f58eabd25dd1fU,
  0xbe977951bdcba1f6U, 0x3e03bb7cbeabe3aeU, 0xbbaad4583c47c0fbU, 0xbca9809dbcf205f8U,
  0x3d29dc493dd61a26U, 0xbf058647be42384cU, 0x3e142adabddb2f38U, 0x3ddd15d8be272ef1U,
  0xbc9e59f8be2dcc6bU, 0x3c1c8fc6be6e0ae5U, 0xbe9be1843e8e005dU, 0xba8d0619bdb75b0bU,
  0xbdfe62b3bdd62a38U, 0xbee95d10bcd0a0d9U, 0x3dad0b413dea884bU, 0xbd8acde0bc4a293fU,
  0x3d691b29be1faeb7U, 0xbd6367b8be8e7658U, 0x3e2445b7be3dcd5aU, 0xbde9cfefbd9ca553U,
  0xbd2130243c664cbaU, 0xbe2022d03c4ada6aU, 0x3de8d919bdda5e6eU, 0xbe169b2ebe240ecfU,
  0x3c998242be4be51cU, 0x3ddddf00bde46269U, 0xbcb249bc3ed0a3fcU, 0xbe7b5dfb3c055497U,
  0xbea6870dbd68778cU, 0xbe91a9aa3e8dd0a0U, 0xbd3ed6f33d5d4becU, 0xbc9b42c93e35e9abU,
  0xbcbabd1f3d6bbf14U, 0x3d97ebfbbd9d613cU, 0xbd23cd0abdc89b80U, 0xbe30f2efbd850553U,
  0xbe951898be0c862bU, 0xbd09a41e3c64d7deU, 0x3d8c8c4bbe1bfb39U, 0xbd970a29be8b5f06U,
  0xbd489ddfbd35b61dU, 0x3cf2f0353d136c1aU, 0xbdca1a223eca6981U, 0xbe13796f3df587bfU,
  0xbe8a13e1bd7c8ab7U, 0x3d6a4e52bdae3d7eU, 0xbd520a953dcd42c3U, 0x3d41c3423c6e29b2U,
  0xbe8ae12fbc4b2bebU, 0x3e19dc57be80e807U, 0xbea41bc73caf74d6U, 0x3eadd7a03d2001e0U,
  0x3dba5f993de89f61U, 0xbebdc9353bcee4acU, 0x3c97ffa6bd38f8b0U, 0x3da016993e3926d6U,
  0x3e9e220fbdd06e26U, 0xbdaaa229bdc1b48fU, 0xbef667ad3c3fc3b9U, 0x3e0e39623e042122U,
  0x3eaea2f43db695e0U, 0xbe37f2a43d88a520U, 0x3e7a5612be0ba08aU, 0x3c75f4ee3e425ce3U,
  0xbf05c4d0beb6ec65U, 0xbd8cf455becfae35U, 0x3b6ebddebe4a85a3U, 0x3dc4ec7d3cdebf3eU,
  0x3d5cd0833e3ecc9dU, 0xbedccbfebda819f7U, 0xbdbe75c9bdbc7611U, 0x3e398afcbe93df41U,
  0x3ed9970cbee48e70U, 0x3d721731bea643f4U, 0xbf1310e63e82d142U, 0xbd8aab86bb29099cU,
  0x3e43fdcebc771bd4U, 0xbeb534d23e1a042eU, 0x3e9b48f1bcd71616U, 0xbd1b718f3dd461caU,
  0xbebc0f1abe8cecefU, 0x3dac3789bf0f78a1U, 0x3da5f940be475d8fU, 0xbde35f323cdbb30fU,
  0x3e88743f3c8081deU, 0xbf338041beb0b280U, 0x3e221a3fbe6ab1d7U, 0x3bb2c6debeb0f03cU,
  0xbd4ba4c6bf0475b7U, 0x3dc45cccbe668e20U, 0xbee45efc3eccae25U, 0xbe305a65bd569ce0U,
  0x3dd6bf3ebce4c846U, 0xbee739673dcbc976U, 0x3e124e6e3bf7a7b4U, 0xbda046fb3e9c1129U,
  0xbe10189cbbc4329bU, 0x3d1bd977bec1fa57U, 0x3dd29b25be0333a4U, 0xbe3d71a3be13e972U,
  0x3d8010153e0936abU, 0xbf1cb7afbe559672U, 0x3e0c19d5be35357bU, 0x3cf47f2fbea0719aU,
  0xbdf0bdafbf029845U, 0x3e4ce5cdbe37c40bU, 0xbed482ad3f12164dU, 0xbece281d3ce43bacU,
  0xbe2b768abcc93648U, 0xbeefff7b3e8ab7c9U, 0xbb46dc5b3c9e2074U, 0xbde4d83f3e9e72a5U,
  0xbebd4576bd9171d8U, 0x3d024800bebb1283U, 0x3cb75df73c0b8284U, 0xbf0d46a5bd43c37bU,
  0xbccfe048bdc20fedU, 0xbf07ac6cbc1088b8U, 0x3de92db8be76db4eU, 0x3d9a947ebeb3b0bdU,
  0x3c0a7cefbedda2aaU, 0x3e44cad0beafdd14U, 0xbe51c65e3f567763U, 0xbeaa4af0bdb575e1U,
  0xbe9d80d3be169774U, 0xbe63c94bbd0b0132U, 0xbd9fdc7f3e52df1cU, 0xbd03611d3dbc2b80U,
  0xbca77015bab07313U, 0xbd8691fa3c26ce61U, 0x3d198fd03d9892c6U, 0x3de760a1bd97f644U,
  0x3dbf03813dbb694cU, 0xbdbcf985bd7a30abU, 0xbd40ff34bc21db29U, 0xbb6719383d659decU,
  0xbd789939bbdf6003U, 0xbe015a6e3dda3b5fU, 0xbdd5e03abe2731aaU, 0xbd91e0ebbd00262cU,
  0xbc353c7bbd9a1826U, 0xbae2a121be1ed723U, 0x3d780ba1be4a5924U, 0xbd89bd62bdd2dbddU,
  0xbd284afdbde8169cU, 0x3d3e3dc0bdf2576aU, 0xbcad56d23ded0701U, 0xbd23b6c03c00693fU,
  0xbd86b3b33dd150efU, 0xbc76bea23dcaebb4U, 0xbd7b27dbbcb4304aU, 0xbdd6897c3d0c94e5U,
  0x3e0f03d73e0077c1U, 0xbdc1b9cebc97b4abU, 0x3d5697593e537361U, 0xbcd7b3da3d926411U,
  0xbd50f1373d31b346U, 0x3d4bc422be5312b6U, 0x3d1e70fabd9f57ecU, 0x3d1efb05bbd1510bU,
  0xbd16bd12bd56e6dfU, 0xbe120b8c3c77ecd1U, 0xbd66156ebcc668adU, 0x3da0c385bd1d756dU,
  0x3bf5976639aed5f0U, 0xbd931634bd102453U, 0x3ddc92a9bb3f3e2cU, 0x3dc7e6fa3ddd580fU,
  0xbdcb744e39c90e19U, 0x3b8ba8c8bdbc4328U, 0xbc4f309ebdf7d892U, 0xbe08f2da3c277520U,
  0xbe188844be06eb12U, 0xbdad0e1fbd29e3ebU, 0xbc1f6f433ddbe454U, 0x3d2166aa3dcc028bU,
  0xbd80de533d260b90U, 0xbd8c1c8ebdc7a094U, 0x3d9448433d9a9aa1U, 0xbd094f3a3c3f33a4U,
  0xbde97d4abd9aba21U, 0xbdb649953d24b965U, 0xbd259e153c0cd36fU, 0xbe1789f03d43eab0U,
  0xbbd9b5a23ddee2eeU, 0xbd4b5f523d05e28fU, 0x3db33e3dbdb59c5bU, 0x3d621d713decd559U,
  0xbc7d0e31bd9b29b9U, 0x3e101eae3cac52cfU, 0x3b9efc113da4f727U, 0xbdf74da0be09ccb3U,
  0x3de90211bdcc369aU, 0xbe01557f3d623076U, 0x3cfa1ff43df11fd1U, 0xbbd77628bd994750U,
  0x3d51ef30bd07b878U, 0x3d11945bbd005fcdU, 0xbcb4dc803db4a337U, 0xbe33a612bc5d2504U,
  0xbe8aec0a3e130677U, 0xbcd9ea32bd2e6210U, 0x3d9b645fbe062194U, 0xbc03f3713d1b6249U,
  0xbca590953d6131adU, 0xbd68325dbdceddebU, 0x3db3f1b9bd4924ceU, 0xbdbe2ef83c8d8014U,
  0xbdb88f2c3d34d80cU, 0x3c2da4ef3bd169edU, 0xbc086a1e3dadbc7dU, 0x3e3e7cfa3d16fa5aU,
  0x3c8ad0d63e336e68U, 0xbdc2ccccbe2c0502U, 0xbdfb853bbc93f5faU, 0xbdcd26cf3e01224eU,
  0x3e9dcfd1bdd0877fU, 0x3d874d6d3e3304f5U, 0xbe850d8f3bd7c8bbU, 0xbe56eb3c3dbca610U,
  0x3e1d01ad3e5a19a8U, 0xbd0303dd3b8a1bcaU, 0x3e512e9bbdc6d44eU, 0xbc53d2423e026deeU,
  0xbeadc2dabe825934U, 0xbd0f18debe6829bdU, 0xba91ca11be585187U, 0xbbaf41d13e0b2bbaU,
  0x3dd574493e184764U, 0xbea2d7723d7e3941U, 0xbe0839233c44ba85U, 0x3e188dddbe15a692U,
  0x3e81ed3ebe1a5667U, 0x3d6ec619bdbf4de9U, 0xbed0c5b83e7ae8e4U, 0xbe9029bc3d13db1aU,
  0x3dd972f73d7afa95U, 0xbc056d40bd86639eU, 0x3e29a7153d24907cU, 0xbc4716dd3defbb58U,
  0xbc8d17fe3c368e58U, 0xbe2b166abe4db9e7U, 0x3b58e99ebe2a789dU, 0xbbacdc523c7a9903U,
  0x3c8add4e3d752b57U, 0xbf0368d4be0499abU, 0xbd0059cabe5a4d48U, 0x3e0c147bbcf7ed25U,
  0xbe240d09bd625199U, 0xbd0cc35dbdc8f175U, 0xbea18ac53eae780aU, 0xbe601f1cbd938947U,
  0x3d40ac0abdaf3fccU, 0xbdea531f3db1b0c9U, 0x3e15364ebd1cf38fU, 0xbda9285c3e6f68c1U,
  0xbda90ab1be550408U, 0xbe44ae7dbe545b24U, 0x3d48be5e3de636cdU, 0xbd155d103d065a15U,
  0xbd867d5e3e18c97cU, 0xbf082e8bbdb23cbeU, 0xbd33d2b0be1db87eU, 0x3e5be756be8b9028U,
  0xbd342eb4bbe6329cU, 0xbd390a1dbe6030a2U, 0xbead22d23eee98feU, 0xbe8983fc3d746d7fU,
  0x3d25d4cfbe0bc3e1U, 0xbeb6859e3dd9858dU, 0xbcbecad23e40e837U, 0xbe0c521e3e90bd8aU,
  0xbe65a6aabe0d1b72U, 0xbd6df2bfbe35915eU, 0xbd8738bdbd855dd5U, 0xbe3feb8cbd22f294U,
  0xbdd639b9bca622ccU, 0xbeb93381bc769c06U, 0x3dd28910be44a2faU, 0x3d36014abea7b254U,
  0xbdf824e93d6ca365U, 0x3d89da54bccef7d5U, 0xbe00986e3f311b1dU, 0xbe6ee37b3da23defU,
  0xbe5bed30be675551U, 0xbd6da2913cba611dU, 0xbe10b8813b98f747U, 0xbdc5c95f3d88f177U,
  0xbd026438bd40842aU, 0xbe18b207be2b6172U, 0xbda940613be10c75U, 0xbc94146d3cd81757U,
  0x3cb085f63d8dac40U, 0xbe46f711bdaba6eaU, 0xbe320293bd9a45f6U, 0xbb7157023d0adcc2U,
  0x3c7eaf23bcdff7a2U, 0x3c40e38a3c3af342U, 0xbe1a5ebdbc0a2629U, 0xbdee62e13d934b56U,
  0x3bdae7a6bcf9c901U, 0x3da5d29abe3a9329U, 0x3d900d1c3d83f4c8U, 0xbda0cc883dce2b09U,
  0x3d61e2c5bd9a31e3U, 0xbdac05f03ac8b1e6U, 0x3d027b6dbc6556f3U, 0xbd08fc743d164ee3U,
  0xbd9e3b7b3d396527U, 0xbd917432bddc1976U, 0xbb87aa7bbd2b0732U, 0x3d1ea9b33ddf64caU,
  0x3da43fd03d9d7418U, 0xbd615eb0bcebe8b6U, 0x3d24902f3db04d53U, 0xbc69e4f63cb90389U,
  0xbd93712fbd84b0ebU, 0xbceffdcebd678718U, 0x3d62d59bbe21b1c2U, 0x3bf4f3563e13b04dU,
  0x3cd4b42bbcf820a4U, 0xbdb71a1cbd350684U, 0x3d8b81273d88db52U, 0x3dc21a993d96ab68U,
  0x3cc20dc13c9c842aU, 0xbd85902d3d9b7d76U, 0xbd6207d73c11cf39U, 0xbdb7dfffbd46224eU,
  0x3e2a2a6cbd1b60b6U, 0x3d3766f6bd28682dU, 0xbcfd9c013d2282f7U, 0xbde38f2b3d28842eU,
  0xbdbe91f9bdd67c9eU, 0x3d94c8e53bd62173U, 0x3d53a008be08861bU, 0xbdb9b62f3e22ec72U,
  0xbdd0da19bdaad222U, 0xbda70520bde762b3U, 0x3de2c8b73d9c962fU, 0x3d210e2cbbd8ec86U,
