/**
  ******************************************************************************
  * @file    network_data_params.c
  * @author  AST Embedded Analytics Research Platform
  * @date    2025-07-30T23:51:07+0000
  * @brief   AI Tool Automatic Code Generator for Embedded NN computing
  ******************************************************************************
  * Copyright (c) 2025 STMicroelectronics.
  * All rights reserved.
  *
  * This software is licensed under terms that can be found in the LICENSE file
  * in the root directory of this software component.
  * If no LICENSE file comes with this software, it is provided AS-IS.
  ******************************************************************************
  */

#include "network_data_params.h"


/**  Activations Section  ****************************************************/
ai_handle g_network_activations_table[1 + 2] = {
  AI_HANDLE_PTR(AI_MAGIC_MARKER),
  AI_HANDLE_PTR(NULL),
  AI_HANDLE_PTR(AI_MAGIC_MARKER),
};




/**  Weights Section  ********************************************************/
AI_ALIGNED(32)
const ai_u64 s_network_weights_array_u64[7553] = {
  0x3e6fb291be3b5840U, 0xbe42d295bcbdfa61U, 0x3e7614413e51ec70U, 0x3db7fb223e6dddc5U,
  0x3e6deb7c3e702c10U, 0x3d7f5070be0fba6fU, 0x3de2725b3ba225d6U, 0xbe881f4cbd849ac0U,
  0xbe974e6e3da8b4aeU, 0x3d4f5db43e262b8eU, 0x3d8337c63e04e132U, 0xbe9daff5beb2992fU,
  0x3d7ca48cbeb11a47U, 0xbe6b298c3e3ba391U, 0xbe4c42a63e884795U, 0xbeb62f00bdd2c269U,
  0xbe7d6f42be2a3a11U, 0x3e695a4fbc721bc7U, 0xbe6edb55bdbdb796U, 0x3e8e1209be7e6f23U,
  0xbcc8328cbe54c6b5U, 0x3c524d523dabb8fcU, 0x3d09d6b73e3eb093U, 0x3e55df72bddb86faU,
  0xbdd1c535bd176f80U, 0x3e51f87a3ea6201dU, 0xbe91a4e13e5ab868U, 0xbe7a67a4be821301U,
  0xbeb73bea3c66a5d8U, 0xbc15a4f8be6520ecU, 0xbe0b11883d61610eU, 0x3e24ab60be846502U,
  0x3eafc2243e2d0eb4U, 0x3eb3a7153ecd3d70U, 0xbe4053f33df4cbd8U, 0x3eaf01aebe5c0b1fU,
  0x3e1844433e53f446U, 0xbec6749b3dccf130U, 0x3e627a913e191ca0U, 0x3ec17df33d1cd4efU,
  0xbdc5d9403e9c03c8U, 0x3bd210cf3dc2884bU, 0x3ead8b973bab10c5U, 0xbbca72efbbc9cfc0U,
  0x3e8433253e17d761U, 0x3b896a463c07ca72U, 0x3dcb391e3ecc90a2U, 0x3d2d321e3d9637f0U,
  0x3e47fda1be2535b2U, 0xbdade7aebd73778cU, 0x3c0b1fbebe3699a9U, 0xbcd0af9dbe8b1fbeU,
  0xbdd0af9dbe93d1baU, 0xbdade7ae3e826dc2U, 0xbd8b1fbebe47fda1U, 0xbe826dc23e0b1fbeU,
  0x3c8b1fbebe026dc2U, 0xbd2de7aebe2de7aeU, 0x3c0b1fbe3e1c83b6U, 0x3e73778c3d0b1fbeU,
  0xbd73778cbd73778cU, 0xbe0b1fbe3e1c83b6U, 0xbd2de7ae3c0b1fbeU, 0xbea535b2bdf3778cU,
  0x3d0b1fbe3d9c83b6U, 0x3e3f4ba5be6ac591U, 0xbde21395bd73778cU, 0x3f8a097f3e47fda1U,
  0x3d50af9d3df3778cU, 0xbd50af9dbdd0af9dU, 0xbe13d1ba3e50af9dU, 0xbdf3778cbe1c83b6U,
  0x3d73778cbd9c83b6U, 0x3e73778c3e47fda1U, 0xbc0b1fbebdade7aeU, 0x3f20dcb43dbf4ba5U,
  0x3d2de7ae3ea0dcb4U, 0x3c8b1fbebdf3778cU, 0x3c0b1fbe3e2535b2U, 0x3e73778c3cd0af9dU,
  0x3d2de7ae3e3f4ba5U, 0x3df3778cbdbf4ba5U, 0x3e0b1fbebe2535b2U, 0x3ed0af9dbe026dc2U,
  0xbe1c83b63e596199U, 0xbe2de7aebd73778cU, 0x3d0b1fbe3e0b1fbeU, 0x3e2535b2bdf3778cU,
  0xbeeaf1373d2711eeU, 0x3ca711ee3d7a9ae5U, 0x3da711ee3e2711eeU, 0xbd50d66a3ca711eeU,
  0x3e07be913e3bf42cU, 0xbca711eebeac4a7dU, 0xbeffd374bc2711eeU, 0xbeb1830dbeeaf137U,
  0xbe7029c63de5b8a7U, 0xbc2711ee3e07be91U, 0x3de5b8a73d922fb0U, 0xbcfa9ae500000000U,
  0xbd922fb0bd7a9ae5U, 0xbe07be91beac4a7dU, 0xbf05224a3e8cf721U, 0xbda711eebe922fb0U,
  0xbe3bf42cbc2711eeU, 0x3d7a9ae53e122fb0U, 0x3e1ca0cfbe122fb0U, 0xbca711eebde5b8a7U,
  0xbd2711ee3dfa9ae5U, 0x3da711eebef029c6U, 0xbf3e90733e5b4788U, 0xbdd0d66abe31830dU,
  0xbfa5c3ca3d922fb0U, 0x3e07be91bde5b8a7U, 0x3e1ca0cf3e122fb0U, 0x3e1ca0cfbdbbf42cU,
  0x3d50d66a3dbbf42cU, 0x3dbbf42cbf122fb0U, 0xbf028602bd50d66aU, 0xbe87be91bc2711eeU,
  0xbe50d66a00000000U, 0x3dfa9ae53dd0d66aU, 0x3cfa9ae53dbbf42cU, 0xbdd0d66a3dbbf42cU,
  0xbd2711ee3dbbf42cU, 0x3d922fb0bed60ef9U, 0xbeb1830dbc2711eeU, 0xbe1ca0cfbc2711eeU,
  0xbd9aa0833db35e09U, 0xbe7a7ee93d08125fU, 0x3deb0875be5ea9b3U, 0x3ea5736ebeaeba80U,
  0x3df767383e0b2a10U, 0xbeaa16f73cdea9b3U, 0x3d5ea9b3U, 0x3e1788d23e304658U,
  0xbc45ec2d3e3ca51bU, 0xbec46055bb45ec2dU, 0x3b45ec2d3cc5ec2dU, 0x3e304658be5562a1U,
  0x3d81e2febde4d914U, 0xbe587a51bd45ec2dU, 0xbcc5ec2dbcad2ea7U, 0x3d1471223e0e41c0U,
  0xbdfd969a3e3fbcccU, 0xbeb046583e1788d2U, 0x3d9aa083be6b0875U, 0x3e0e41c0be7137d7U,
  0xbd81e2febd398d6aU, 0xbe7d969abdf76738U, 0xbd20cfe53da6ff46U, 0xbdd24af03c776738U,
  0x3da0cfe500000000U, 0xbcf76738U, 0xbc947122be45ec2dU, 0x3d2d2ea7be587a51U,
  0x3cc5ec2d3d524af0U, 0xbdbfbcccbdd87a51U, 0xbe0e41c03e4903deU, 0xbdf767383dcc1b8eU,
  0xbd8e41c03e2d2ea7U, 0xbe84faae3e3ca51bU, 0x3dd24af03d9aa083U, 0xbdf137d7bd81e2feU,
  0x3e3fbccc3dcc1b8eU, 0xbe6b0875bdad2ea7U, 0x3dd87a51bc147122U, 0x3d5ea9b3bd88125fU,
  0xbdc60c09bd86292fU, 0x3b4c6f85be0c8cabU, 0x3dff8b66be4c6f85U, 0x3e52d301be8fbe6aU,
  0x3d8c8cab3da61a9cU, 0xbe4c6f85bdec60f2U, 0xbdf927ea3e02f771U, 0x3cb2e194bd8c8cabU,
  0xbce5fd76bd72c46eU, 0xbe8af3cc3ce5fd76U, 0x3d32e194be7927eaU, 0xbc1953a4be948907U,
  0x3d86292f3c4c6f85U, 0xbecad6a6bd86292fU, 0x3dd9367dbd261a9cU, 0x3dbfa88d3c9953a4U,
  0xbdd2d301bcff8b66U, 0xbec7a4e83d261a9cU, 0xbc7f8b66bd92f028U, 0x3cb2e194be0c8cabU,
  0x3e261a9cbde5fd76U, 0xbd9953a43e1c8562U, 0x3e02f7713d59367dU, 0x3c7f8b663d9fb720U,
  0x3d9953a43c1953a4U, 0x3c9953a43bcc6f85U, 0x3e1621e6bd65fd76U, 0x3e9c85623d59367dU,
  0xbdf927ea3e394511U, 0xbdc60c09bd1953a4U, 0x3db945113e5c683bU, 0xbde5fd76be394511U,
  0xbe294c5a3d86292fU, 0xbcff8b663ddf99f9U, 0x3d59367dU, 0xbcff8b66bc4c6f85U,
  0xbdc60c093e361352U, 0xbd261a9c3c7f8b66U, 0xbe22e8debdcc6f85U, 0x3dd9367dbd9fb720U,
  0xbdc32c793e57811bU, 0xbecf5f413e22a510U, 0x3e67c4d0bda2a510U, 0x3ec32c79beb90228U,
  0xbd432c79bd432c79U, 0xbde3b3e2bce3b3e2U, 0xbe12615b3e780884U, 0x3c021da6be5b9208U,
  0x3c821da63e167248U, 0xbdbb0a9f3ca2a510U, 0x3e36f9b1bd92615bU, 0x3e780884be167248U,
  0xbd12615b3d8a3f80U, 0xbe4b4e53bde3b3e2U, 0xbcc32c793de3b3e2U, 0x3d432c79be3f1b8cU,
  0xbdaac6ea3e88370aU, 0xbd63b3e23e062e93U, 0x3e22a510be0e506eU, 0x3f01196bbe9e9422U,
  0x3d73f7973e57811bU, 0xbe9c8bac3d22a510U, 0xbe2ed7d73de3b3e2U, 0xbde3b3e2be5fa2f5U,
  0xbd73f7973e432c79U, 0xbe1e94223e36f9b1U, 0xbc821da6bdaac6eaU, 0x3d821da6be84261dU,
  0x3ce3b3e23e36f9b1U, 0xbdc32c79be32e8c4U, 0xbe4f5f413d021da6U, 0xbd22a5103d12615bU,
  0x3ca2a5103e473d66U, 0xbd32e8c43daac6eaU, 0x3e821da6be432c79U, 0x3ddb9208bd821da6U,
  0x3e36f9b13dd3702eU, 0xbdebd5bd3d22a510U, 0x3cc32c793e4b4e53U, 0xbc821da6be4b4e53U,
  0x3de3423000000000U, 0xbd811fcabd909e7cU, 0xbdf7eb1e3b254769U, 0xbe512e61bc254769U,
  0xbe7a803bbd4e9943U, 0xbd109e7c3c77eb1eU, 0xbdde17f5be1af2f2U, 0xbd864a05bd39f056U,
  0x3c254769bc254769U, 0xbd95c8b7be15c8b7U, 0xbd58edba3dfd1559U, 0x3d1af2f23d6d96a7U,
  0xbc254769be3c8574U, 0x3da01d2ebda01d2eU, 0x3e064a05be3f1a91U, 0x3cf7eb1e3c77eb1eU,
  0x3ca547693d6d96a7U, 0x3c909e7cbd2f9be0U, 0xbcce9943bd909e7cU, 0x3daa71a4bdbf1a91U,
  0x3d634230bdb9f056U, 0x3d1af2f23ce34230U, 0x3e03b4e8be6d96a7U, 0x3df2c0e2be2a71a4U,
  0x3d95c8b7be77eb1eU, 0xbdbf1a91bc254769U, 0x3d2547693e41afafU, 0xbda01d2e3e201d2eU,
  0xbe03b4e8bd864a05U, 0x3d864a053d4444cdU, 0x3d58edbabc77eb1eU, 0x3d58edba3d909e7cU,
  0xbe2d06c2be201d2eU, 0xbd864a05be3f1a91U, 0xbdfd15593e185dd5U, 0xbe109e7cbb254769U,
  0xbdc96f08bea3fcdaU, 0xbd2547693d909e7cU, 0x3c77eb1ebe15c8b7U, 0x3d39f056be4444cdU,
  0xbcf97f4cbd1bef90U, 0xbea7a1873cbb1f79U, 0xbdf97f4c3dcab76eU, 0x3ede3560bd3b1f79U,
  0x3c797f4cbe71b352U, 0xbdda4f623e142395U, 0x3d5a4f62be2b8784U, 0xbe88719ebe048ba0U,
  0xbe3b1f79bd1bef90U, 0xbe048ba03c797f4cU, 0xbe2b87843dcab76eU, 0x3f778c4dbc797f4cU,
  0x3d1bef90bd797f4cU, 0x3cbb1f79bde9e757U, 0x3d3b1f79bbf97f4cU, 0xbcf97f4cbe42eb73U,
  0xbe42eb733e2b8784U, 0x3e8c579b3e142395U, 0x3dcab76e3e2b8784U, 0x3f528368bc797f4cU,
  0xbdf97f4c3d5a4f62U, 0x3d8c579bbd1bef90U, 0xbc797f4c3d3b1f79U, 0xbd797f4cbe3b1f79U,
  0x3d797f4cbdda4f62U, 0x3df97f4c3e142395U, 0xbe4ab76ebe1bef90U, 0x3eedcd54bd797f4cU,
  0x3e1423953e0c579bU, 0xbd797f4cbbf97f4cU, 0x3e0c579b3dcab76eU, 0x3d8c579b3dcab76eU,
  0xbd5a4f62be1bef90U, 0x3dbb1f793c797f4cU, 0x3cf97f4c3d1bef90U, 0xbdcab76ebe142395U,
  0xbe0c579bbd797f4cU, 0xbe4ab76e3c797f4cU, 0x3bf97f4c3cf97f4cU, 0xbe3b1f79bcbb1f79U,
  0xbd1ca46eU, 0xbe780458bbd0db3dU, 0x3e717d7fbdb6bfd5U, 0x3ec710f6bd828906U,
  0x3e4a5463bddde8f1U, 0xbe9fe7dbbdeaf6a5U, 0x3bd0db3d3e1ca46eU, 0x3c9ca46e3d028906U,
  0xbe161d943dc3cd89U, 0xbd8f96ba3e43cd89U, 0x3e828906bd8f96baU, 0x3e576217be36bfd5U,
  0x3dd0db3d3e0f96baU, 0xbe828906bd6af6a5U, 0xbdeaf6a53e3d46afU, 0x3d50db3d3d828906U,
  0xbe50db3d3e090fe0U, 0x3e717d7fbd828906U, 0x3e090fe03d1ca46eU, 0x3ef4c0ebbe29b222U,
  0x3e1ca46e3e232b48U, 0xbc50db3d3dd0db3dU, 0xbe161d943e7e8b32U, 0x3e161d94be36bfd5U,
  0xbd0289063dc3cd89U, 0x3e29b222bbd0db3dU, 0x3e0f96babeb37c68U, 0x3e43cd893c50db3dU,
  0x3e3d46afbc50db3dU, 0xbe0f96ba3ddde8f1U, 0xbdc3cd893d828906U, 0x3e36bfd53dc3cd89U,
  0xbd50db3d3e161d94U, 0xbddde8f1bd6af6a5U, 0x3e717d7fbf4f3987U, 0x3e0f96babdf80458U,
  0x3d0289063e028906U, 0xbe85cc73bbd0db3dU, 0x3d028906bd36bfd5U, 0xbd6af6a5bd028906U,
  0xbe097f69U, 0x3e407f2cbe3b7f32U, 0xbdf9feed3deffef8U, 0xbdd6ff143e2eff40U,
  0xbc6ffef8bcdbff0eU, 0x3c47ff243e097f69U, 0x3d9aff56be24ff4aU, 0xbe3b7f32bc6ffef8U,
  0xbd33ff3abe33ff3aU, 0xbd9aff56be187f58U, 0xbe10ff603da9ff45U, 0xbe367f37bbeffef8U,
  0xbde0ff083c1fff50U, 0x3d86ff6cbcb3ff3aU, 0x3db3ff3abd8bff66U, 0xbe38ff34bde5ff03U,
  0x3dd6ff14bd33ff3aU, 0x3dc2ff2abdc2ff2aU, 0xbe687f00bc6ffef8U, 0x3d8bff663cb3ff3aU,
  0xbe42ff2abdfefee8U, 0x3df9feedbc47ff24U, 0x3c6ffef8bdf4fef2U, 0x3ceffef8be42ff2aU,
  0xbd51ff19U, 0xbe01ff713c47ff24U, 0xbe3b7f32bd51ff19U, 0xbc1fff503e42ff2aU,
  0xbcc7ff24bda4ff4aU, 0xbd33ff3abe38ff34U, 0x3d29ff45be987f58U, 0x3da4ff4a3dccff1eU,
  0x3d9fff50be187f58U, 0x3df4fef23d3dff2fU, 0xbe3dff2fbcc7ff24U, 0xbd51ff193e01ff71U,
  0xbe5bff0ebe137f5eU, 0x3e1aff563e01ff71U, 0x3c1fff50be9ebf51U, 0x3dc7ff24be06ff6cU,
  0x3c8755ef3cecd662U, 0xbd9840adbd9840adU, 0xbd5beba4be0755efU, 0x3e46c6373d7dc120U,
  0xbe20b60c3e031b40U, 0x3e292b6b3e0b909eU, 0xbd7dc120bdc28b88U, 0xbe1405fdbe962355U,
  0x3d1840adbca92b6bU, 0xbdf54bc13dc28b88U, 0xbdb1a0ca3d5beba4U, 0x3df54bc13e0fcb4eU,
  0xbdba16293de46103U, 0x3c0755efbe5beba4U, 0xbe7986713dcb00e6U, 0x3e4f3b963dcb00e6U,
  0xbd1840adbd4b00e6U, 0xbdfdc1203e4b00e6U, 0x3df54bc1bc4b00e6U, 0x3e4b00e63e0b909eU,
  0x3b8755efbd1840adU, 0x3d3a16293ccb00e6U, 0xbcecd662bddbeba4U, 0x3e8fcb4e3dba1629U,
  0xbe1840adbe031b40U, 0x3d1840ad3d9840adU, 0x3d8755ef3e031b40U, 0x3c0755ef3d3a1629U,
  0x3d7dc120bc0755efU, 0x3db1a0ca3f064743U, 0x3e31a0cabe428b88U, 0xbc0755ef3e3e50d8U,
  0xbe031b40bdfdc120U, 0x3ca92b6bbd6cd662U, 0xbdd37645bd0755efU, 0x3e46c6373e0755efU,
  0xbd1840adbdb1a0caU, 0xbd6cd6623e602654U, 0x3da0b60cbe35db79U, 0xbe646103bda92b6bU,
  0xbe1acc38bd975b97U, 0x3d69eaa43c251e1aU, 0xbd82b7d43e32e09cU, 0x3eda6fd23b5c2822U,
  0x3e062875bd975b97U, 0x3d907a563ed546e1U, 0x3d5c28223cf7ad26U, 0x3d4e65a0be175b97U,
  0xbe107a563c251e1aU, 0xbd9e3cd8bd175b97U, 0xbde9eaa4bdfe8e67U, 0x3ed546e13da51e1aU,
  0x3cc0a31e3e87e0c5U, 0x3d975b97be175b97U, 0xbe8b51663e667a04U, 0x3e9232a7bd77ad26U,
  0x3e0628753dfe8e67U, 0x3dd546e13df0cbe5U, 0xbdce65a03b5c2822U, 0x3d82b7d43da51e1aU,
  0xbdb9c1dd3e907a56U, 0xbcdc28223d907a56U, 0x3e36513cbe02b7d4U, 0x3eb9c1dd3eb6513cU,
  0xbd77ad26be4af4ffU, 0xbdc0a31ebe099915U, 0xbe251e1abd5c2822U, 0x3cdc2822bd69eaa4U,
  0x3c899915bde9eaa4U, 0x3de309633e062875U, 0x3da51e1abdc7845fU, 0x3d9e3cd83d4e65a0U,
  0xbde30963bde30963U, 0xbd975b97be251e1aU, 0xbdce65a03da51e1aU, 0x3d32e09cbdabff5bU,
  0xbdb2e09cbe5f98c3U, 0x3b5c28223df0cbe5U, 0x3cc0a31ebe8b5166U, 0xbe4e65a0be40a31eU,
  0x3e71f92aU, 0xbeddcf113e0d26aeU, 0x3e6487c43daec22cU, 0x3cd7165ebed05dabU,
  0xbbd7165e3bd7165eU, 0xbf066dfb3d71f92aU, 0x3d3c33923e49a4f8U, 0xbdf1f92a3e066dfbU,
  0x3d2150c63e505dabU, 0xbe505dab3dff6a90U, 0x3d3c33923e49a4f8U, 0x3eff6a903d066dfbU,
  0x3c57165ebd57165eU, 0xbde487c4bdbc3392U, 0xbcd7165e3df1f92aU, 0xbde487c4U,
  0xbe13df613e6b4077U, 0x3da150c63daec22cU, 0xbd2150c6bbd7165eU, 0x3f04bfcebd2150c6U,
  0x3e5dcf113e066dfbU, 0x3d93df61bd57165eU, 0xbe357adf3c57165eU, 0x3d57165ebe066dfbU,
  0xbe1a98143dd7165eU, 0x3e2809793d2150c6U, 0x3dc9a4f8be78b1ddU, 0x3d3c3392be13df61U,
  0x3e57165e3daec22cU, 0xbe13df613bd7165eU, 0xbe2150c63d57165eU, 0x3df1f92a3dbc3392U,
  0xbd3c33923e357adfU, 0x3cd7165e3dd7165eU, 0x3e13df61bf556831U, 0x3e1a9814bd93df61U,
  0x3ca150c63dff6a90U, 0xbe7f6a903df1f92aU, 0x3dbc33923e42ec45U, 0x3daec22cbdff6a90U,
  0xbd2b6c993e43e9d3U, 0x3d829be23dd43d4fU, 0x3dc7feb23c029be2U, 0x3ddc670d3c029be2U,
  0x3e35a0c6bde07becU, 0x3c829be2bdaf8178U, 0xbd8ac5a03e7f1875U, 0xbd1b191c3d6490ccU,
  0xbe0ac5a03e21386bU, 0xbdfd0e06be1d238cU, 0x3d8eda7fbdb39657U, 0x3d0ac5a0be62865cU,
  0x3d339657bde8a5abU, 0xbdf4e4483d7d0e06U, 0x3d543d4f3e21386bU, 0x3ce490cc3c43e9d3U,
  0x3d829be23e06b0c1U, 0xbe17043dbd3bc015U, 0x3e8196aa3db39657U, 0xbcc3e9d3be14f9ceU,
  0x3e254d4abdd43d4fU, 0xbd8ac5a03d4c1391U, 0xbcc3e9d33d543d4fU, 0xbe190ead3d6cba8aU,
  0xbe0cd0103e39b5a5U, 0x3c2342dabd2342daU, 0x3d2b6c99bdaf8178U, 0x3cc3e9d3bdb7ab36U,
  0x3cf4e448be543d4fU, 0xbe3bc0153dd43d4fU, 0xbce490ccbc2342daU, 0x3e0ac5a03dd8522eU,
  0xbe06b0c13e1d238cU, 0x3d97043d3d86b0c1U, 0x3e74e448bb029be2U, 0x3da342dabd339657U,
  0xbde07becbdbfd4f4U, 0xbd029be2bdaf8178U, 0xbe1f2dfb3e04a652U, 0x3cd43d4fbc829be2U,
  0xbcb81e673e1598b4U, 0xbeb6ae2a3dac9c81U, 0xbce62601be1e3a21U, 0x3df1a7e7beb6ae2aU,
  0xbc0a16cd3ddaa41aU, 0xbeae0cbd3db25d74U, 0x3dc3a04d3da6db8dU, 0x3d2c9c81bce62601U,
  0xbe3afee1bbb81e67U, 0xbe8175603e12b83aU, 0x3e18792dbe017560U, 0x3debe6f4be9147fdU,
  0x3e1e3a213dac9c81U, 0xbe26db8d3ddaa41aU, 0xbd1598b43d43a04dU, 0xbdac9c8100000000U,
  0xbd2c9c81bc0a16cdU, 0xbe0a16cdbc0a16cdU, 0x3df768dabd4f2234U, 0x3bb81e67be8cf747U,
  0x3e1e3a213ddaa41aU, 0xbe353ded3d4f2234U, 0xbe0455da3e3afee1U, 0x3d6626013d211a9aU,
  0x3da11a9a3e23fb14U, 0x3d2c9c813d8a16cdU, 0xbd43a04d3cb81e67U, 0x3dfd29cebe4680c7U,
  0xbde62601bd662601U, 0xbde0650ebdf1a7e7U, 0x3c8a16cdbd8fd7c0U, 0xbe01756000000000U,
  0xbd71a7e7bdd4e327U, 0xbdac9c813e211a9aU, 0xbd71a7e73d8fd7c0U, 0xbca11a9abd2c9c81U,
  0xbd7d29ce3d5aa41aU, 0x3d2c9c813d381e67U, 0xbdb81e673d9b59a7U, 0x3de626013da11a9aU,
  0xbf6673e23df5d0f1U, 0x3e385cb5bcc4a727U, 0x3e2c1242bc44a727U, 0x3e385cb53dc4a727U,
  0x3d137d5d3cc4a727U, 0xbcc4a727be99a296U, 0xbf0d5824bcc4a727U, 0xbe69867ebefbf62aU,
  0xbddd3c0c3dc4a727U, 0x3e1fc7d03dac1242U, 0x3e5d3c0c00000000U, 0x3ddd3c0c3d137d5dU,
  0x3d137d5d3e1fc7d0U, 0xbe75d0f1U, 0xbf106ac13e69867eU, 0xbe8732ebbe69867eU,
  0xbe8d58243cc4a727U, 0x3e810db2U, 0xbd137d5dU, 0x3ddd3c0cbd75d0f1U,
  0x3e0732eb3dac1242U, 0xbd75d0f1bf04204eU, 0xbf84204e3d75d0f1U, 0xbe50f199beb85cb5U,
  0xbfc31dd9bcc4a727U, 0xbdf5d0f13e69867eU, 0x3e385cb53e0732ebU, 0x3d937d5d3dac1242U,
  0x3e385cb5bc44a727U, 0xbe1fc7d0bf32377bU, 0xbf0d58243c44a727U, 0xbdf5d0f1be937d5dU,
  0xbee361453dc4a727U, 0x3d75d0f13cc4a727U, 0x3e8732ebbd75d0f1U, 0xbd44a7273d137d5dU,
  0xbd75d0f1bd75d0f1U, 0x3c44a727bf32377bU, 0xbe810db23dac1242U, 0x3d137d5dbe810db2U,
  0xbdbd8d2cbe3687f2U, 0x3d7cbc3bbe79399eU, 0xbb60a7513deeb1c6U, 0x3c60a7513d6eb1c6U,
  0xbe08e5f5be6eb1c6U, 0x3df5b7013ea6bc2eU, 0x3e449267bd3687f2U, 0xbdcb97a13d60a751U,
  0x3e1a7308bea87d7dU, 0x3e08e5f5bdbd8d2cU, 0xbdf5b7013e79399eU, 0x3d8563583dcb97a1U,
  0xbdeeb1c6bda87d7dU, 0x3c287d7d3e8aa744U, 0xbd8c6893bdbd8d2cU, 0xbe67ac8cbd287d7dU,
  0xbe1df5a5be7cbc3bU, 0x3e856358bdd29cdcU, 0xbe4b97a13dc49267U, 0x3e5d24b43e59a216U,
  0xbd529cdcbe1df5a5U, 0x3da87d7d3e330555U, 0x3d6eb1c6bcfcbc3bU, 0x3e01e0bbbdd29cdcU,
  0x3e0c6893be056358U, 0x3e5d24b4bc60a751U, 0xbe1a73083e0feb30U, 0x3e91ac7f3e8e29e1U,
  0xbe561f79be08e5f5U, 0x3c287d7dbdd29cdcU, 0xbe1df5a5bcc49267U, 0x3e8c6893bc60a751U,
  0x3d7cbc3b3d3687f2U, 0x3e4b97a13e08e5f5U, 0xbe6eb1c63be0a751U, 0x3de7ac8c3e67ac8cU,
  0xbde0a751bd0c6893U, 0x3e59a2163e330555U, 0x3de7ac8cbd3687f2U, 0x3edee6023e88e5f5U,
  0xbd215568bde9ef0aU, 0x3db9889ebe8b2676U, 0xbe1d4cdf3d913344U, 0xbdd9cce6bd4199b0U,
  0xbe55c45dbe194456U, 0x3ce1ddf83e65e681U, 0x3dd9cce6bea359acU, 0xbe51bbd43d913344U,
  0xbb811120be7e19b7U, 0x3c4199b0bcc199b0U, 0x3c4199b0be092232U, 0xbe2155683e0d2abbU,
  0x3c011120be8519a9U, 0xbd4199b03e2d6f03U, 0xbc811120bea55df1U, 0xbd2155683da15568U,
  0x3c4199b0be194456U, 0x3dd9cce6bca15568U, 0xbe55c45d3e011120U, 0x3db1778c3dc199b0U,
  0xbe31778cU, 0x3d61ddf83db1778cU, 0xbd892232bdf2001cU, 0xbd61ddf8be7608a5U,
  0xbdfa112ebe72001cU, 0xbd51bbd43d4199b0U, 0xbd2155683df2001cU, 0x3e9133443d31778cU,
  0xbe3580153e153bcdU, 0x3ce1ddf8bd4199b0U, 0xbe2155683e194456U, 0x3e1944563ce1ddf8U,
  0x3d2155683e0519a9U, 0x3b8111203e59cce6U, 0x3ca155683e0519a9U, 0x3e4199b0bce1ddf8U,
  0x3df2001c3e092232U, 0xbdb1778c3eaf7348U, 0x3e39889ebe913344U, 0x3efe19b73f000efeU,
  0xbf3591b53dd283d6U, 0xbd7c9e343e839266U, 0x3d935c49bd935c49U, 0x3e1de2e0bc286978U,
  0xbd286978bc286978U, 0x3e1de2e0be9de2e0U, 0xbf0b77573e7c9e34U, 0xbefc9e34becd408aU,
  0xbe8e18fd3e679105U, 0xbde791053e935c49U, 0xbc2869783d286978U, 0x3e08d5b2U,
  0x3dfc9e343e3d76a7U, 0x3e32f010beb8335bU, 0xbf2dacc43d935c49U, 0xbdbd76a7bf08d5b2U,
  0xbe8e18fd3e839266U, 0xbdbd76a73dd283d6U, 0xbcfc9e343d7c9e34U, 0xbd286978bc286978U,
  0xbd5283d6bd7c9e34U, 0xbdbd76a7bf304e6aU, 0xbf8241933e47fd3eU, 0xbea3262cbf15fdefU,
  0xbfa718a53e5d0a6eU, 0xbcfc9e34U, 0x3e47fd3e3d286978U, 0x3e3d76a7be08d5b2U,
  0xbca86978bde79105U, 0xbd286978bf5a68c8U, 0xbf3591b53e5d0a6eU, 0xbeadacc4be47fd3eU,
  0xbecd408a3e286978U, 0xbdbd76a73e08d5b2U, 0x3e32f0103d7c9e34U, 0xbdbd76a7bcfc9e34U,
  0x3e2869783d286978U, 0x3c286978bf47fd3eU, 0xbf08d5b23de79105U, 0xbe88d5b2be839266U,
  0xbe966e86be1b9e79U, 0xbe4f7df700000000U, 0x3ca5fe5fbea5fe5fU, 0xbe113e93be8c0ea0U,
  0xbe6e9da9be59ddddU, 0xbec51e11be966e86U, 0xbda5fe5fbe305e45U, 0x3c25fe5fbd78fd8eU,
  0xbd25fe5f00000000U, 0xbed9ddddbe06deadU, 0xbe78fd8ebe305e45U, 0xbe81aebabe1b9e79U,
  0xbe86dead3d78fd8eU, 0xbe913e93be1b9e79U, 0xbe1b9e79bda5fe5fU, 0x3eca4e04bd913e93U,
  0xbfa4b2623de43dc3U, 0xbe06dead3d25fe5fU, 0x3e59ddddbe4f7df7U, 0x3e1b9e79be451e11U,
  0x3df8fd8e3dbabe2bU, 0xbe78fd8e3e3abe2bU, 0xbdf8fd8e3e913e93U, 0xbe59ddddbe81aebaU,
  0xbf86dead3e78fd8eU, 0xbd78fd8e3da5fe5fU, 0x3dbabe2bbd4f7df7U, 0xbe305e45be643dc3U,
  0x3e113e933d78fd8eU, 0xbdf8fd8ebd913e93U, 0x3cf8fd8e3e451e11U, 0xbe913e933dbabe2bU,
  0xbf9b9e793d4f7df7U, 0xbdbabe2b3d78fd8eU, 0x3ea5fe5fU, 0x3cf8fd8ebe4f7df7U,
  0x3e06dead3e59ddddU, 0xbda5fe5f3d78fd8eU, 0xbe06dead3e1b9e79U, 0xbeca4e04bd78fd8eU,
  0xbe2f6ce1bcce61faU, 0x3e49392000000000U, 0xbdd8b3ac3df7a8c5U, 0x3e8de35c3c251b2eU,
  0x3e80fd3cU, 0x3d251b2ebe727fecU, 0xbe538ad3be1ac97bU, 0x3dce61fa3d862615U,
  0x3e00fd3cbdce61faU, 0xbcf7a8c5bd4e61faU, 0xbe3ee76dbd63055fU, 0x3da51b2ebe00fd3cU,
  0xbda51b2e3cf7a8c5U, 0xbd4e61fabe538ad3U, 0xbde3055f3ca51b2eU, 0x3e251b2e3cce61faU,
  0x3d251b2ebe1ff255U, 0xbc251b2e3e251b2eU, 0x3daf6ce1bd77a8c5U, 0xbe251b2ebe1ff255U,
  0xbd1077c83df7a8c5U, 0xbe251b2e3e7cd19eU, 0x3e77a8c5bcf7a8c5U, 0x3e58b3ac3ca51b2eU,
  0xbdce61fabe493920U, 0x3ca51b2e3dce61faU, 0x3e58b3ac3e0b4eefU, 0x3d39be94be15a0a2U,
  0x3d39be94bea51b2eU, 0x3d9077c83ee599ccU, 0x3dc41047be251b2eU, 0xbe63055fbdc41047U,
  0xbe15a0a23d862615U, 0x3e251b2ebdaf6ce1U, 0x3daf6ce13d862615U, 0x3f23d0f83db9be94U,
  0x3c251b2ebdb9be94U, 0x3e3495ba3e8391a9U, 0xbd9ac97b3e538ad3U, 0x3d9077c8bd39be94U,
  0x3dc68946bdf2a7c7U, 0xbe257265bd72a7c7U, 0xbe045b843cb07a05U, 0xbd8f6324bd468946U,
  0x3dfdaf67be9fee95U, 0xbe1a6ac43d9a6ac4U, 0x3e2572653d045b84U, 0xbe3b81a5bddc9886U,
  0x3d5c98863da57265U, 0x3cb07a05bcb07a05U, 0x3d307a05bd1a6ac4U, 0x3ef2a7c73db07a05U,
  0xbd045b843d5c9886U, 0xbde7a027bdb07a05U, 0x3da57265bd9a6ac4U, 0x3bb07a05bd9a6ac4U,
  0xbe2af635be410575U, 0x3dfdaf67bd72a7c7U, 0xbe2af635bcdc9886U, 0x3ddc9886bd1a6ac4U,
  0x3dd190e6bd045b84U, 0x3dbb81a500000000U, 0xbdfdaf67bbb07a05U, 0x3d845b84bd1a6ac4U,
  0xbddc98863d045b84U, 0x3d5c98863d307a05U, 0x3d72a7c7bd045b84U, 0x3ed714b6bd045b84U,
  0x3cb07a05bd1a6ac4U, 0x3dbb81a53d468946U, 0x3e09df54bd9a6ac4U, 0x3e307a05bd72a7c7U,
  0x3e09df5400000000U, 0x3e92250c3ddc9886U, 0x3dfdaf67bea2b07dU, 0x3f2f1911bd72a7c7U,
  0xbd9a6ac43e3b81a5U, 0x3d1a6ac4be307a05U, 0x3d1a6ac43e871d6cU, 0x3e045b84bd845b84U,
  0x3d859247bd9a1ef0U, 0xbe8ab5713d9a1ef0U, 0x3e4338413db8f1ecU, 0x3d38f1ecbe620b3eU,
  0x3e0fd89cbe7697e6U, 0xbe94fbc63e29886eU, 0x3e0fd89c3de20b3eU, 0xbe38f1ecbba46544U,
  0x3d7697e63c7697e6U, 0xbdf697e6be33cec2U, 0x3c2465443d7697e6U, 0x3e1f421abe433841U,
  0x3cf697e6bdf697e6U, 0xbe2465443e33cec2U, 0xbdb8f1ec3d9a1ef0U, 0xbe0ab571bba46544U,
  0xbe1f421abd246544U, 0x3dd7c4e93d0fd89cU, 0x3dd7c4e93e33cec2U, 0x3f13b2fb3dcd7e95U,
  0x3e14fbc6be38f1ecU, 0x3e059247bccd7e95U, 0xbe006f1dbde20b3eU, 0xbde20b3ebe1a1ef0U,
  0x3dcd7e953d859247U, 0x3e0592473cf697e6U, 0x3ca465443dd7c4e9U, 0x3f231c793ccd7e95U,
  0x3e14fbc6bdd7c4e9U, 0xbd620b3ebe0fd89cU, 0xbd4d7e953e1a1ef0U, 0xbe0ab571bd620b3eU,
  0x3dec51923df697e6U, 0xbdb8f1ec3d38f1ecU, 0xbd859247bd246544U, 0x3e9f421abe33cec2U,
  0x3c7697e63e059247U, 0x3c246544bde20b3eU, 0x3d7697e63d9a1ef0U, 0x3e4d7e953e006f1dU,
  0x3d91eadebdb3149cU, 0xbb543e5abdd0ed61U, 0xbde4d3393dbd0788U, 0x3e0b48ebbe188cd1U,
  0x3d756818bda921b0U, 0xbc9f2ec4bdeec625U, 0xbdff5b04bd4d9c67U, 0xbda921b0bb9f2ec4U,
  0xbd84a6f83dcd9c67U, 0xbd1f2ec43d5ae04dU, 0xbe5295dd3cc6fa74U, 0xbe09a06e3dfc0a0bU,
  0xbb543e5a3e1a354dU, 0x3d9f2ec43d543e5aU, 0x3e02fe7c3d0b48ebU, 0xbd0b48eb3de4d339U,
  0xbe2aca2c3bd43e5aU, 0xbe0155ffbce18240U, 0xbe0e99e4bdeb752cU, 0x3c39b68f3d25d0b6U,
  0xbdeb752c3d04a6f8U, 0xbce182403dd43e5aU, 0x3dbd0788bdb9b68fU, 0xbce18240bd8155ffU,
  0xbd84a6f83d8e99e4U, 0x3df8b911bd682432U, 0xbdd43e5a3d8b48ebU, 0xbe33149cbd5ae04dU,
  0x3da921b03d8b48ebU, 0xbdd78f53bcb9b68fU, 0x3b9f2ec43d25d0b6U, 0xbdeec625bbd43e5aU,
  0xbcfc0a0bbe316c1fU, 0xbde4d339bdb3149cU, 0xbd7c0a0b3db9b68fU, 0xbde82432be2c72a9U,
  0xbdeec625be2e1b26U, 0x3df2171f3dc05882U, 0x3e02fe7cbd4d9c67U, 0xbddae04dbe153bd7U,
  0xbe1e652c3d3708d2U, 0xbdc51d313cc51d31U, 0x3d8ccbb5bd9ae014U, 0x3e9ae014be64cb07U,
  0x3e21ea44bde8501eU, 0x3be145ef3dd33190U, 0xbbe145ef3d6145efU, 0x3cc51d313c6145efU,
  0x3daffea33d3708d2U, 0xbe1e652c00000000U, 0xbcc51d313ce145efU, 0x3e64cb07bd85c186U,
  0x3dda3bc0bd533190U, 0xbe533190bc28f473U, 0x3d7d6ead3ca8f473U, 0xbd3708d2bc28f473U,
  0xbca8f4733d93d5e5U, 0xbe56b6a83c6145efU, 0x3be145efbe975afdU, 0x3d6145efbe8ccbb5U,
  0x3e1e652c3da8f473U, 0xbe4c27613d8ccbb5U, 0xbd3708d23daffea3U, 0x3e3708d2bd6145efU,
  0x3e023c6e3cc51d31U, 0xbca8f4733e13d5e5U, 0x3e419819bedbfe4bU, 0x3ce145efbeae3c17U,
  0xbbe145ef3dda3bc0U, 0xbd85c186bd93d5e5U, 0x3e4198193e28f473U, 0x3e4c27613e0ccbb5U,
  0x3e05c1863d28f473U, 0xbdf6647dbce145efU, 0x3d28f473beae3c17U, 0xbca8f473bec19819U,
  0x3d28f4733e79e995U, 0xbedf8363bce145efU, 0x3d6f5a4e3de8501eU, 0x3e6bd5363e09469eU,
  0xbdc07cd63e1ceb56U, 0x3cc8db4f3da33230U, 0x3cd99840bc27616cU, 0x3e5bafdebdf6e2e6U,
  0xbd7b1223bd27616cU, 0xbdab90a93e44ac13U, 0x3db3ef213d7b1223U, 0xbd72b3aa3da7616cU,
  0xbe105da13dd139c8U, 0x3b85e78abe0c2e64U, 0x3e381e5e3bc8db4fU, 0x3dc8db4fbe48db4fU,
  0x3cfb12233dd139c8U, 0xbe78fa853e148cddU, 0xbdb3ef213df6e2e6U, 0x3de625f5bdc4ac13U,
  0xbdf6e2e63e211a92U, 0x3c85e78abd7b1223U, 0xbb85e78a3d81b84eU, 0x3df6e2e6be4f2229U,
  0xbd5139c8bdd139c8U, 0xbe27616c3bc8db4fU, 0xbdf2b3aabd0e4603U, 0x3de1f6b93dd139c8U,
  0xbe211a92bd81b84eU, 0xbdf2b3aabc85e78aU, 0x3e27616cbe0c2e64U, 0x3dfb1223be84dbbbU,
  0x3de625f5bd7b1223U, 0xbc6a5532bd8e4603U, 0xbd92753f3e640e57U, 0xbd48db4fbd61f6b9U,
  0x3dd139c8bd381e5eU, 0xbe1f02f4bdc8db4fU, 0x3d05e78abe07ff28U, 0xbdf2b3aabda7616cU,
  0xbdf2b3aa3b05e78aU, 0xbe2549cebbc8db4fU, 0x3dcd0a8bbcfb1223U, 0xbd48db4f3d8e4603U,
  0xbdca78bbbb9a439bU, 0x3e02290bbdd41cf5U, 0xbde765683dddc12fU, 0x3d40d482bd40d482U,
  0x3d06fb283c1a439bU, 0x3e1f15b83db73048U, 0x3db730483ce76568U, 0xbea3e7d5bdf109a2U,
  0xbe6c3785bd7aaddcU, 0x3c1a439bbdf109a2U, 0xbe1f15b83c676568U, 0x3f190f143e62934cU,
  0xbd40d4823e15717eU, 0x3d06fb283b9a439bU, 0xbe23e7d53de76568U, 0x3d909f61be909f61U,
  0x3d86fb28bdd41cf5U, 0x3dc0d4823cc0d482U, 0xbe6c3785be02290bU, 0x3e7109a2bd541cf5U,
  0xbd1a439bbc676568U, 0x3d541cf5bc676568U, 0x3ce76568be15717eU, 0x3e7109a23da3e7d5U,
  0x3dd41cf5bd40d482U, 0xbc6765683cc0d482U, 0xbd2d8c0e3dca78bbU, 0xbe1a439b3b9a439bU,
  0xbe4a78bbbe15717eU, 0x3d06fb283e3c0265U, 0x3de76568be3c0265U, 0x3dd41cf53dad8c0eU,
  0x3d7aaddcbe1f15b8U, 0x3dca78bbbe7109a2U, 0xbe82290b3d40d482U, 0x3da3e7d53b9a439bU,
  0xbe4f4ad8bdca78bbU, 0xbdad8c0e3e2d8c0eU, 0x3dd41cf5be82290bU, 0xbeb25e2bbe23e7d5U,
  0xbe0262053d6186f4U, 0x3df6ab9b3e1786acU, 0xbd0cf458bd536e85U, 0x3d536e853dd36e85U,
  0x3d6186f4bd6186f4U, 0x3cc556163c6186f4U, 0xbd8cf4583db73da6U, 0x3e3ac3c2bb6186f4U,
  0xbd8cf4583da92537U, 0xbdc556163d455616U, 0x3d292537be9b0cc8U, 0x3e48dc31be68932cU,
  0xbca925373d455616U, 0x3c6186f43d940090U, 0x3da218ffbd455616U, 0xbcc55616bde186f4U,
  0x3d6f9f63bdb0316fU, 0x3de186f4bdc55616U, 0x3ca92537bea92537U, 0x3e940090be8eb766U,
  0x3de186f4be096e3dU, 0xbe373da63be186f4U, 0xbda218ff3e4c624dU, 0xbe107a743d940090U,
  0xbdd36e853d85e821U, 0xbe8b314b3e4fe869U, 0x3c292537becfe869U, 0xbd7db7d2bedfc3e6U,
  0xbd292537bbe186f4U, 0xbe33b78abcc55616U, 0x3dfdb7d23d8cf458U, 0x3de186f43e1786acU,
  0xbe3ac3c23e107a74U, 0xbe2218ff3e1e92e4U, 0x3dd36e85be259f1bU, 0x3d7db7d2bdcc624dU,
  0x3de186f43d292537U, 0xbea3dc0d3e1e92e4U, 0x3ce186f43db0316fU, 0xbdf6ab9bbda92537U,
  0xbe00b1d1bdd29756U, 0x3e5e4a69bce0a16cU, 0xbe1a6efb3e1369efU, 0xbdb683283ca87911U,
  0xbca87911be3d8834U, 0xbccde94e3da87911U, 0xbd31d521be1a6efbU, 0xbe1cc5febe00b1d1U,
  0xbd8c64e4be81dd53U, 0xbd69fd7c3d57455dU, 0xbd0308d53d4de94eU, 0x3e2ad015bc8308d5U,
  0x3b95c0f3bb95c0f3U, 0xbd7cb59a3dad2719U, 0xbe599c61be23cb0aU, 0xbd9a6efb3dbfdf37U,
  0xbe1f1d02bd287911U, 0xbdd7455dbe15c0f3U, 0xbe855fd83e0a0de0U, 0x3d87b6dcbbe0a16cU,
  0xbe23cb0a3d448d3fU, 0xbc15c0f3bdc93b47U, 0xbd8c64e4bcbb3130U, 0x3e3fdf37bde54f74U,
  0x3d4de94e3b95c0f3U, 0x3b95c0f3bdb1d521U, 0xbe8b39623e0308d5U, 0x3d8c64e43ca87911U,
  0xbe57455d3e07b6dcU, 0xbd60a16c3d95c0f3U, 0xbd95c0f3bdc48d3fU, 0x3e1817f73d1f1d02U,
  0x3e0308d5be07b6dcU, 0x3db68328bd8308d5U, 0xbe9495713d8c64e4U, 0x3c3b31303e0a0de0U,
  0xbe055fd8bcbb3130U, 0x3e448d3f3cf3598bU, 0x3e31d521be1f1d02U, 0x3e1369ef3e1817f7U,
  0xbf1623243e2b95e0U, 0x3dcac865bbf9942eU, 0x3cf9942e3cf9942eU, 0xbd79942e3e0c635aU,
  0xbde9faebbd1bfc9dU, 0x3c79942ebe622e4aU, 0xbe79942e3e71c78dU, 0xbf42fbc4bf00b068U,
  0xbe42fbc4bcbb2f22U, 0xbdbb2f223d1bfc9dU, 0x3e2b95e0be23c93eU, 0x3d1bfc9dbd79942eU,
  0x3df9942e3d5a61a8U, 0x3df9942ebe80b068U, 0xbee9faeb3e529507U, 0xbe622e4abf0e5682U,
  0xbf5295073df9942eU, 0xbd3b2f22bdab95e0U, 0x3e336281bdab95e0U, 0xbd5a61a83dab95e0U,
  0xbd1bfc9d3e142ffbU, 0x3d3b2f22beede13cU, 0xbf77a106bdab95e0U, 0xbd1bfc9dbeb748d2U,
  0x3dab95e0bc79942eU, 0x3d5a61a83e142ffbU, 0x3dda61a83e0c635aU, 0x3e1bfc9dbe142ffbU,
  0x3e23c93e3e142ffbU, 0x3e0c635abf2d8908U, 0xbeb748d23bf9942eU, 0xbde9faebbde9faebU,
  0x3de9faeb3e336281U, 0x3d9bfc9dbd5a61a8U, 0x3dcac865bdbb2f22U, 0xbcf9942ebd79942eU,
  0x3cf9942ebdab95e0U, 0xbd1bfc9dbf0c635aU, 0x3d8c635a3d5a61a8U, 0xbe336281bdab95e0U,
  0xbd25b6b9bdbf9b46U, 0xbe06a476bd1b5b4dU, 0x3e51bb42bdf89216U, 0x3da08903be8176c1U,
  0xbb25b6b93d1b5b4dU, 0xbbf89216bdb01225U, 0xbda5b6b93d8bd22cU, 0x3daae46f3dfdbfcbU,
  0x3ccf24673dee36aaU, 0xbbf892163ba5b6b9U, 0x3e32a8ffbe37d6b5U, 0x3e093b51be75fb3bU,
  0xbde3db3e3d3a6d90U, 0xbe82c22e3d962d98U, 0x3df892163e32a8ffU, 0xbe284d94bc4f2467U,
  0xbd1b5b4dbda08903U, 0xbe18c473bdb01225U, 0x3e0176c1be44c8fcU, 0x3dc9f6b1bcf89216U,
  0xbd25b6b9bbf89216U, 0xbd962d98bda5b6b9U, 0xbd9b5b4d3e6e36aaU, 0xbc789216bde908f4U,
  0xbdc9f6b13dee36aaU, 0xbe3a6d903dfdbfcbU, 0x3c4f2467be4c8d8cU, 0x3e10ffe2be840d9bU,
  0x3e231fde3e37d6b5U, 0xbe9b5b4d3d90ffe2U, 0x3dd4521dbdc9f6b1U, 0x3d9b5b4d3e10ffe2U,
  0xbe040d9b3e1396bdU, 0xbe9df2283d3a6d90U, 0x3e0bd22cbea46b4cU, 0xbdd4521dbe18c473U,
  0xbdf36460be18c473U, 0xbe8559093ddead89U, 0x3df364603d6e36aaU, 0x3e1b5b4d3e06a476U,
  0xbdb7439cbd911587U, 0xbe3372343bf45a26U, 0x3e4a5aa7bcb7439cU, 0xbd911587bef27172U,
  0x3d651484bde51484U, 0xbe0972b5bc37439cU, 0xbd745a263c37439cU, 0xbdce2c10bd651484U,
  0xbe7088bd3d911587U, 0xbe1c89c0be05a14dU, 0x3e3ee66ebd911587U, 0x3e3ee66ebe27fdfaU,
  0xbd8972b53e3b1505U, 0xbe3ee66e3d651484U, 0x3dbee66e3dd5cee1U, 0xbd651484be337234U,
  0xbcb7439c3df45a26U, 0x3dafa0cbbd745a26U, 0x3e5d71b23d0972b5U, 0x3ea05b29be59a04aU,
  0x3e55cee13e205b29U, 0x3d8972b53d46893fU, 0xbc98b8583e61431bU, 0xbc37439c3d0972b5U,
  0xbdfbfcf73d46893fU, 0xbc98b8583dc6893fU, 0x3e3ee66ebdfbfcf7U, 0x3e42b7d6bdbee66eU,
  0xbc98b8583de51484U, 0xbe0d441e3d98b858U, 0xbcd5cee13e7fce60U, 0x3d651484bd8972b5U,
  0xbdd5cee13e2fa0cbU, 0xbda05b293da05b29U, 0x3e42b7d6be7fce60U, 0xbdf45a26be51fd79U,
  0xbd98b8583d0972b5U, 0xbe46893f3c37439cU, 0x3d745a263e337234U, 0xbdf45a26be205b29U,
  0xbf0928a93e8529f6U, 0xbd3fc18c3e4fbc58U, 0x3d3fc18cbe5a638aU, 0x3d1524c2be6a5e56U,
  0x3baa73273e1a785bU, 0xbd550ff1be9fcbf5U, 0xbf291e41bbaa7327U, 0x3e9a785bbdaa7327U,
  0x3d7facba3e3fc18cU, 0xbe0fd1293d9fcbf5U, 0x3e351a593c7facbaU, 0xbd2a7327bd1524c2U,
  0x3baa73273cd50ff1U, 0x3caa73273d550ff1U, 0xbea7c95abd550ff1U, 0x3d7facba3baa7327U,
  0x3d9524c23d7facbaU, 0xbe4515253e4a68beU, 0x3e1a785bbe82802aU, 0x3e1fcbf5be3fc18cU,
  0xbd8a7d903e251f8eU, 0xbc2a73273ddfb723U, 0xbebfc18c3df50588U, 0xbd9fcbf5be4fbc58U,
  0x3c7facba3d8a7d90U, 0x3c7facba3db51a59U, 0xbd2a7327bcaa7327U, 0x3df50588bd6a5e56U,
  0x3e4515253df50588U, 0xbdf505883ead1cf4U, 0xbe550ff1bd1524c2U, 0xbea51f8ebecd128bU,
  0xbe2fc6c0bcffacbaU, 0xbe0529f6bd7facbaU, 0x3cffacbabd3fc18cU, 0x3d9fcbf5be3a6df3U,
  0x3e0a7d90bd3fc18cU, 0xbc2a73273e351a59U, 0xbed7b9bd3e2fc6c0U, 0xbf07d3c3bf0d275cU,
  0x3db1ad34bd1788fcU, 0x3d1d915f3da748b2U, 0xbe1d56a23da7948aU, 0x3df1850abdbb1826U,
  0xbd367217be30b2ebU, 0x3dabb17fbdc097e8U, 0x3cbbc4f13e012cb8U, 0xbddc1ce33dc0b0bdU,
  0x3dd0da49be0995feU, 0xbda14fc13e047e91U, 0x3d2377f4bd785d4aU, 0x3d24fd51bd1edb9eU,
  0xbdfbcb463d4c9c0aU, 0xbe1ae6613d254889U, 0x3d399c7e3db0ef2cU, 0x3dacfd0b3dbcdbbaU,
  0xbdc81f6e3f18df1eU, 0x3e533d9e3e31e30cU, 0x3d5e5bcf3dde5bcfU, 0x3e533d9e3eb1e30cU,
  0xbd9ba6aabc31e30cU, 0x3e697a003f161792U, 0x3db1e30c3d9ba6aaU, 0xbe056a49be3d013dU,
  0xbe26c4db3f056a49U, 0x3f8831d53f63eae7U, 0x3dde5bcf3e10887aU, 0x3dde5bcfbdc81f6eU,
  0x3eb1e30c3d056a49U, 0xbd31e30c3c31e30cU, 0xbd31e30cbe10887aU, 0xbe7fb6613e5e5bcfU,
  0xbd856a493ee3eae7U, 0x3c31e30c3d5e5bcfU, 0xbdc81f6ebd31e30cU, 0x3e31e30c3ede5bcfU,
  0x3d856a4900000000U, 0x3d5e5bcf3f507612U, 0xbd056a493e481f6eU, 0xbd5e5bcfbe3d013dU,
  0xbe5e5bcf3f4ae6faU, 0x3fa561153f775fbdU, 0x3dc81f6e3d056a49U, 0xbd9ba6aaU,
  0x3e856a4900000000U, 0xbd31e30c3e31e30cU, 0x3df49830bd856a49U, 0xbeb1e30c3e1ba6aaU,
  0xbd056a493f1e6e37U, 0x3d856a493d9ba6aaU, 0x3db1e30cU, 0x3e3d013d3f135006U,
  0x3eac53f4bdde5bcfU, 0x3e3d013d3f9a42e4U, 0xbc31e30cbc31e30cU, 0x3e10887abd856a49U,
  0xbe26c4db3f533d9eU, 0x3f61235b3f7ceed5U, 0x3d056a49bd9ba6aaU, 0x3db1e30cbd056a49U,
  0x3ef498303e056a49U, 0xbe1ba6aa3d856a49U, 0x3d9ba6aabe10887aU, 0xbecdae863db1e30cU,
  0xbe3d013d3efa2749U, 0x3d856a493d856a49U, 0x3d856a493e10887aU, 0x3e7498303f0dc0eeU,
  0x3d056a49bcb1e30cU, 0x3e31e30c3fb07f46U, 0x3d9ba6aa3df49830U, 0xbd856a49bc31e30cU,
  0xbd31e30c3f3fc8c9U, 0x3f2f1b803e056a49U, 0xbd056a49bd5e5bcfU, 0x3d9ba6aaU,
  0x3f2f1b803e1ba6aaU, 0xbe1ba6aa3d31e30cU, 0x3d31e30c3db1e30cU, 0xbe8af961bcb1e30cU,
  0xbe10887a3ede5bcfU, 0x3e533d9eU, 0xbdc81f6e3e10887aU, 0x3d5e5bcf3f0831d5U,
  0xbdc81f6ebe056a49U, 0x3e31e30c3fa29989U, 0x3d9ba6aa3df49830U, 0xbe9ba6aabd856a49U,
  0xbd9ba6aa3e7fb661U, 0x3f298c67be3d013dU, 0x3d5e5bcf3d056a49U, 0x3d31e30c3d5e5bcfU,
  0x3eef09183e056a49U, 0xbd31e30c3e3d013dU, 0x3df49830bd5e5bcfU, 0xbe856a49bcb1e30cU,
  0x3c227dd43f6480f2U, 0xbdb6cd8ebe36cd8eU, 0x3ca27dd43cf3bcbeU, 0x3da27dd43f78d0adU,
  0x3df3bcbe3e40f56cU, 0x3c227dd43f7132c7U, 0xbe0e2e1abd227dd4U, 0x3c227dd4be227dd4U,
  0xbe227dd43f1855f7U, 0x3f7b5aa43f999af2U, 0x3e4b1d493e6994e1U, 0xbcf3bcbebdf3bcbeU,
  0x3ed03138be0e2e1aU, 0x3e4b1d49bdf3bcbeU, 0x3da27dd4be0e2e1aU, 0xbe04063c00000000U,
  0xbdcb1d493f2f2fa9U, 0xbca27dd4be1855f7U, 0x3ddf6d0400000000U, 0xbda27dd43f670ae9U,
  0x3e5545263e6994e1U, 0x3d4b1d493f6ea8cfU, 0xbd73bcbe3da27dd4U, 0x3d8e2e1abd73bcbeU,
  0xbe04063c3ed54526U, 0x3f6994e13f84063cU, 0x3d8e2e1a3eb1b9a0U, 0xbdcb1d493ddf6d04U,
  0x3e84063c3df3bcbeU, 0x3e6994e13dcb1d49U, 0x3cf3bcbebdcb1d49U, 0xbe227dd4bd8e2e1aU,
  0x3c227dd43f2ca5b1U, 0x3d227dd43db6cd8eU, 0x3dcb1d49bda27dd4U, 0x3e227dd43f52bb2fU,
  0x3c227dd43e5f6d04U, 0x3ddf6d043f40f56cU, 0x3cf3bcbe3ca27dd4U, 0xbc227dd43d73bcbeU,
  0x3db6cd8e3eeea8cfU, 0x3f46095a3f9710fbU, 0x3ddf6d043ed54526U, 0x3d8e2e1abddf6d04U,
  0x3eb1b9a03df3bcbeU, 0x3e40f56cbcf3bcbeU, 0x3cf3bcbebdcb1d49U, 0x3d4b1d493c227dd4U,
  0xbd8e2e1a3f15cbffU, 0x3ddf6d043db6cd8eU, 0xbddf6d043cf3bcbeU, 0x3e1855f73f2a1bbaU,
  0x3db6cd8e3e84063cU, 0x3d73bcbe3f069034U, 0xbda27dd4bdcb1d49U, 0x3ddf6d04be1855f7U,
  0xbca27dd43eaca5b1U, 0x3f9adfee3e0e2e1aU, 0xbd227dd43e7de49bU, 0x3d4b1d49U,
  0x3eaca5b13cf3bcbeU, 0xbc227dd43ddf6d04U, 0xbe0e2e1abdb6cd8eU, 0xbc227dd43e5f6d04U,
  0x3ca27dd43f36cd8eU, 0x3e04063cbcf3bcbeU, 0xbd8e2e1a3dcb1d49U, 0x3e2ca5b13f04063cU,
  0xbca27dd43e4b1d49U, 0x3e04063c3efde49bU, 0x3db6cd8ebda27dd4U, 0xbd4b1d493ca27dd4U,
  0x3df3bcbe3f1d69e5U, 0x3fa138d8bd4b1d49U, 0xbd8e2e1a3e9855f7U, 0xbc227dd400000000U,
  0x3e4b1d49bca27dd4U, 0x3ddf6d04bcf3bcbeU, 0xbd73bcbebdb6cd8eU, 0x3e5545263df3bcbeU,
  0x3dc7a7a2be235a9cU, 0xbcd9ce26bdd9ce26U, 0xbc9134193e2c6ddeU, 0x3e95bdbabe8caa78U,
  0xbed0bae4U, 0x3dc7a7a2bede57c6U, 0x3d1134193dc7a7a2U, 0xbd1134193d7e1b2cU,
  0x3e8820d7be50bae4U, 0xbf1a475bbf8eef49U, 0x3e0820d73d59ce26U, 0xbdb5811f3d59ce26U,
  0xbf113419bda35a9cU, 0xbe50bae4be8caa78U, 0xbdd9ce263e8820d7U, 0x3e9a475b3d35811fU,
  0x3dc7a7a2bebe9461U, 0xbe62e167be62e167U, 0xbdd9ce263dfe1b2cU, 0x3dd9ce26bf0820d7U,
  0xbd7e1b2cbeb5811fU, 0x3e2c6ddebe8caa78U, 0xbcd9ce263d35811fU, 0x3e2c6dde3d7e1b2cU,
  0x3da35a9c3c113419U, 0xbf039737bf84b99fU, 0xbc113419bdd9ce26U, 0xbe7507eabd113419U,
  0xbea7e43dbe50bae4U, 0xbd913419be59ce26U, 0xbe9a475b3e62e167U, 0x3ed544853e47a7a2U,
  0x3cd9ce26befe1b2cU, 0xbeac6ddebecc3143U, 0xbe35811f3dd9ce26U, 0x3e7e1b2cbef507eaU,
  0x3d35811fbef07e49U, 0x3e7e1b2cbe50bae4U, 0xbe50bae43e235a9cU, 0x3e47a7a23d7e1b2cU,
  0x3e0820d7bdc7a7a2U, 0xbf015266bdd9ce26U, 0x3d59ce26bd59ce26U, 0xbecc3143bda35a9cU,
  0xbe8caa78bea35a9cU, 0xbe235a9cbe7e1b2cU, 0xbeba0ac03dfe1b2cU, 0x3ea35a9c3d35811fU,
  0xbc113419bf039737U, 0xbe95bdbabe7e1b2cU, 0xbea7e43d3dc7a7a2U, 0x3e50bae4beb0f77eU,
  0x3d35811fbe839737U, 0x3e113419be8820d7U, 0xbee2e1673d913419U, 0x3debf4a93e35811fU,
  0x3e59ce2600000000U, 0xbef07e493e2c6ddeU, 0x3c113419bd113419U, 0xbed9ce26bd113419U,
  0xbe9ed0fbbe35811fU, 0xbcd9ce26be59ce26U, 0xbea7e43d3debf4a9U, 0x3eac6dde3e235a9cU,
  0x3e113419beba0ac0U, 0xbe2c6ddebdfe1b2cU, 0xbf1378e93e2c6ddeU, 0x3db5811fbea35a9cU,
  0xbdb5811fbe913419U, 0x3e59ce26be235a9cU, 0xbe8397373e0820d7U, 0x3dd9ce263e3e9461U,
  0x3e3e9461bdfe1b2cU, 0xbf9011b13d35811fU, 0x3da35a9c3d7e1b2cU, 0xbe9a475b3debf4a9U,
  0xbe8caa78be50bae4U, 0xbe6bf4a9be2c6ddeU, 0xbe62e1673d7e1b2cU, 0x3ebe94613e2c6ddeU,
  0x3cba578fbdf874bfU, 0x3c7874bf3d596627U, 0xbbf874bf3e68ed73U, 0x3e3a578fbe1b48f7U,
  0xbd9b48f7be1b48f7U, 0x3e68ed73bec9dedbU, 0x3d3a578f3dd96627U, 0xbd8bc1ab3e2ad043U,
  0x3e0bc1abbdf874bfU, 0xbf19580ebf7683d6U, 0x3d8bc1ab3e2ad043U, 0xbe421b353cba578fU,
  0xbe51a2813cf874bfU, 0xbe7874bfbe1b48f7U, 0x3dd96627U, 0x3ec21b353e03fe05U,
  0x3cba578fbeb293e9U, 0xbe1b48f7bdba578fU, 0x3cba578f3dd96627U, 0x3e7874bfbeb675bcU,
  0x3d8bc1abbdf874bfU, 0x3e801c32be230c9dU, 0x3cf874bf3d7874bfU, 0xbcf874bf3de8ed73U,
  0x3e596627bcf874bfU, 0xbf19580ebf15763bU, 0x3d3a578f3cf874bfU, 0xbe83fe053cba578fU,
  0xbea30c9dbe230c9dU, 0x3bf874bfbea30c9dU, 0xbd3a578f3d9b48f7U, 0x3ec9dedb3e596627U,
  0x3de8ed73bedd47faU, 0xbeaad043be70b119U, 0xbde8ed733de8ed73U, 0x3ea30c9dbec5fd08U,
  0x3cba578fbe938551U, 0x3e03fe05be8fa37eU, 0xbdf874bf3e03fe05U, 0x3dd966273d596627U,
  0x3bf874bf3bf874bfU, 0xbed584543df874bfU, 0x3cba578fbe68ed73U, 0xbf0fa37e3c7874bfU,
  0xbd596627be83fe05U, 0x3d596627beb293e9U, 0xbec9dedb3d8bc1abU, 0x3ec9dedb3d596627U,
  0x3dba578fbefc5692U, 0xbec21b35bed58454U, 0xbe87dfd83e2ad043U, 0x3e6129cdbedd47faU,
  0x3e2ad043bea6ee70U, 0x3e49dedbbde8ed73U, 0xbed584543c7874bfU, 0x3e0bc1ab3d9b48f7U,
  0x3df874bfbe1b48f7U, 0xbefc56923e0bc1abU, 0x3de8ed73be3293e9U, 0xbf119468bd3a578fU,
  0xbe1b48f7beb675bcU, 0xbd7874bfbe9f2acaU, 0xbee129cd3d9b48f7U, 0x3e83fe053e6129cdU,
  0x3dd96627bed1a281U, 0xbe976724bea6ee70U, 0xbec5fd083e1b48f7U, 0x3e596627bec5fd08U,
  0xbdaad043be9f2acaU, 0x3d9b48f7be3a578fU, 0xbea6ee703cf874bfU, 0x3d8bc1ab3daad043U,
  0x3daad043bdf874bfU, 0xbf57753e3dc9dedbU, 0x3c7874bfbd1b48f7U, 0xbec5fd083dba578fU,
  0xbe49dedbbe03fe05U, 0xbe0bc1abbe801c32U, 0xbebe39623d7874bfU, 0x3eb675bc3e596627U,
  0x3d0b896a3f0fe5b5U, 0xbcd14e1f3e25b32eU, 0x3d74307a3d514e1fU, 0x3e62bf4c3ec4393dU,
  0x3d74307a3c8b896aU, 0x3d8b896a3f37245bU, 0xbc8b896aU, 0xbdd14e1fbd74307aU,
  0xbc8b896a3eeb77e3U, 0x3f3952813f8a7257U, 0x3e4895883dd14e1fU, 0x3d74307abd9cfa97U,
  0x3eccf1d4bc0b896aU, 0xbe1cfa973d8b896aU, 0x3d514e1f3d0b896aU, 0xbde2bf4c3d2e6bc4U,
  0xbd2e6bc43f0b896aU, 0x3d0b896aU, 0xbd2e6bc43dd14e1fU, 0x3d2e6bc43ee71b98U,
  0xbc8b896abcd14e1fU, 0x3d0b896a3f5a06b6U, 0x3dbfdcf23dd14e1fU, 0xbd74307abe25b32eU,
  0x3c8b896a3ed14e1fU, 0x3f55aa6a3f7abaeaU, 0x3d0b896a3dae6bc4U, 0xbd514e1f00000000U,
  0x3eb7245bbd514e1fU, 0x3d74307a3dbfdcf2U, 0xbde2bf4c3d0b896aU, 0xbe5a06b63c0b896aU,
  0xbc8b896a3eda06b6U, 0x3d2e6bc4bc8b896aU, 0xbd0b896aU, 0x3e0b896a3ee71b98U,
  0x3e1442013d8b896aU, 0x3d514e1f3f57d890U, 0x3c8b896abd514e1fU, 0x3e02d0d3bdd14e1fU,
  0xbc0b896a3ee2bf4cU, 0x3f3daecc3f671b98U, 0x3e14420100000000U, 0x3d2e6bc4bd2e6bc4U,
  0x3e5a06b63e1cfa97U, 0xbd74307a3df4307aU, 0x3d8b896abc0b896aU, 0xbdf4307a3e144201U,
  0xbd9cfa973f144201U, 0xbdae6bc43d514e1fU, 0x3c0b896a3dbfdcf2U, 0x3d2e6bc43eaa0f79U,
  0x3e1cfa97bcd14e1fU, 0x3d74307a3f537c45U, 0x3d0b896aU, 0x3d74307abd9cfa97U,
  0xbdf4307a3eeb77e3U, 0x3f5c34dbbd2e6bc4U, 0xbd0b896a3d8b896aU, 0x3d74307abd0b896aU,
  0x3ec895883e0b896aU, 0xbdbfdcf23e514e1fU, 0x3d9cfa97bdae6bc4U, 0xbe25b32ebc8b896aU,
  0xbe514e1f3f095b44U, 0x3dd14e1f3d0b896aU, 0x3d514e1f3d8b896aU, 0x3d9cfa973eda06b6U,
  0x3dae6bc4bd9cfa97U, 0x3e2e6bc43f6b77e3U, 0xbdf4307a3c8b896aU, 0xbc8b896abd2e6bc4U,
  0xbe5a06b63efce910U, 0x3f5a06b6bdae6bc4U, 0x3d74307abde2bf4cU, 0xbd8b896abd514e1fU,
  0x3ec4393d00000000U, 0x3cd14e1f3dbfdcf2U, 0xbd514e1fbdae6bc4U, 0xbd2e6bc43c0b896aU,
  0xbd0bb2bc3efd33f5U, 0x3d518c1a3df478c9U, 0xbd8bb2bc3e25e43fU, 0x3d9d29143ef01b33U,
  0xbd2e9f6bbde30272U, 0x3dae9f6b3f4f5d4fU, 0x3d8bb2bc3c8bb2bcU, 0xbde30272be48d0eeU,
  0xbd7478c93eb75a97U, 0x3f7b052a3f701b33U, 0x3e02f7903dc015c2U, 0x3de30272bd7478c9U,
  0x3e8755263d7478c9U, 0xbc0bb2bc3e5a4746U, 0xbd518c1abdf478c9U, 0xbebbb82d3dae9f6bU,
  0x3d7478c93ee30272U, 0x3cd18c1a3dd18c1aU, 0x3c0bb2bc3e1d2914U, 0x3e146de83ee30272U,
  0x3dd18c1a3d518c1aU, 0x3df478c93f4affb9U, 0xbc0bb2bc3e2e9f6bU, 0x3c0bb2bcbe146de8U,
  0xbe6302723ee76007U, 0x3f53bae53f8a9b57U, 0x3e2e9f6b3dae9f6bU, 0x3d2e9f6bbd518c1aU,
  0x3e946de8bcd18c1aU, 0x3dc015c2U, 0x3dae9f6bbe146de8U, 0xbe5a47463dc015c2U,
  0x3c0bb2bc3f02f790U, 0x3d0bb2bc3e25e43fU, 0x3c8bb2bc3d9d2914U, 0x3e375a973eae9f6bU,
  0x3e48d0eebd9d2914U, 0x3f5a4746U, 0xbcd18c1a3cd18c1aU, 0x3c0bb2bcbe1d2914U,
  0xbd7478c93f101052U, 0x3f1d29143f701b33U, 0x3dd18c1abdae9f6bU, 0x3d9d29143d9d2914U,
  0x3f00c8c53d2e9f6bU, 0xbd0bb2bc3dc015c2U, 0x3de30272bd2e9f6bU, 0xbe6bbd9d3dae9f6bU,
  0xbd9d29143f0bb2bcU, 0x3dc015c23de30272U, 0x3c0bb2bc3d0bb2bcU, 0x3e2e9f6b3eebbd9dU,
  0x3d518c1a3d518c1aU, 0x3dae9f6b3f7b052aU, 0x3d0bb2bcU, 0xbdc015c2bc8bb2bcU,
  0xbe0bb2bc3f0bb2bcU, 0x3f25e43fbd7478c9U, 0x3d0bb2bc3df478c9U, 0xbc8bb2bcbcd18c1aU,
  0x3ea5e43f3e02f790U, 0xbc8bb2bc3e4015c2U, 0x3c0bb2bc00000000U, 0xbe4015c23dae9f6bU,
  0xbd2e9f6b3ee76007U, 0xbd8bb2bc3e5a4746U, 0x3d0bb2bc3dc015c2U, 0x3e6302723f1f57deU,
  0xbd2e9f6b3d518c1aU, 0x3d8bb2bc3f30ce36U, 0x3d0bb2bc3c8bb2bcU, 0x3cd18c1abc8bb2bcU,
  0xbe146de83ed18c1aU, 0x3f518c1abd9d2914U, 0x3cd18c1a3e02f790U, 0xbd8bb2bc3d2e9f6bU,
  0x3eebbd9d3e1d2914U, 0x3d2e9f6b3e25e43fU, 0x3dae9f6bbd8bb2bcU, 0xbe375a9700000000U,
  0xbe3c20ee3e71e133U, 0x3cd701103c8f560bU, 0xbdc5164fbc0f560bU, 0xbd332b8e3eaeb0ddU,
  0xbe570110bd332b8eU, 0xbc8f560b3f3568e6U, 0xbc0f560bbd570110U, 0xbe332b8ebcd70110U,
  0xbd0f560b3f2c7385U, 0x3f25bb7d3f80c74eU, 0x3d0f560b3c8f560bU, 0x3cd70110U,
  0x3e8adb5b3cd70110U, 0xbe332b8ebcd70110U, 0xbda140ccbd332b8eU, 0xbe2140cc3e2140ccU,
  0xbd7ad6933eb32b8eU, 0x3d7ad69300000000U, 0x3c8f560bbd7ad693U, 0xbd5701103ea140ccU,
  0x3e184b6c3d570110U, 0xbd332b8e3f7ad693U, 0xbd332b8ebc0f560bU, 0xbdb32b8ebe184b6cU,
  0xbc0f560b3f332b8eU, 0x3f4753a73f8e375fU, 0x3d5701103da140ccU, 0xbd8f560b3d332b8eU,
  0x3eed66823d8f560bU, 0xbd570110bc0f560bU, 0x3d0f560bbc8f560bU, 0xbe332b8ebc8f560bU,
  0x3cd701103e5ff671U, 0xbd8f560b3e0660aaU, 0xbd0f560b3d332b8eU, 0xbc0f560b3ea140ccU,
  0x3e45164fbdd70110U, 0x3e0f560b3f8d18b3U, 0xbc8f560b3db32b8eU, 0x3e45164fbdc5164fU,
  0xbd5701103f089e02U, 0x3f27f8d53f8541feU, 0x3d570110bc0f560bU, 0xbde8ebd2U,
  0x3e9cc61c3de8ebd2U, 0x3d570110U, 0xbd570110bc8f560bU, 0x3d332b8e00000000U,
  0xbd8f560b3e9cc61cU, 0xbc0f560b3db32b8eU, 0x3c0f560b3cd70110U, 0x3d7ad6933ed70110U,
  0x3e0660aa3da140ccU, 0x3e0660aa3f741e8bU, 0x3d332b8ebcd70110U, 0xbdc5164f3d332b8eU,
  0x3d7ad6933f0f560bU, 0x3f3e5e473e184b6cU, 0x3dfad6933e4e0bb0U, 0x3d570110bc0f560bU,
  0x3e8660aa3d0f560bU, 0xbd7ad693bd7ad693U, 0xbdd701103de8ebd2U, 0xbe0660aabc0f560bU,
  0xbe0660aa3e984b6cU, 0xbdb32b8e3d7ad693U, 0xbd8f560bbc0f560bU, 0x3d7ad6933ebc20eeU,
  0xbe3c20ee3d7ad693U, 0x3c8f560b3f7d13ebU, 0x3d5701103e0660aaU, 0xbdb32b8ebd332b8eU,
  0xbc8f560b3f25bb7dU, 0x3f570110bde8ebd2U, 0x3d7ad6933e2140ccU, 0x3d0f560bU,
  0x3eaa362d3dfad693U, 0x3d570110U, 0x3db32b8e3dc5164fU, 0xbcd701103dc5164fU,
  0xbc424b683ce59eefU, 0xbddcca0d3ccb204aU, 0xbc1ef7e1bd27ccc2U, 0xbdd85f9c3b0d4e1dU,
  0xbd08e3ac3da7ccc2U, 0xbc0d4e1d3d4f8abbU, 0xbe0b18e5bc84793bU, 0x3bf748b3bd9a8d70U,
  0xbde1347ebcb97686U, 0xbd4b204a3d53f52cU, 0xbdee73d13bb0a1a4U, 0x3ca7ccc23dcb204aU,
  0xbd3de0f73c53f52cU, 0x3c9622ffbdb97686U, 0x3d985837bcdcca0dU, 0xbce59eefbd72de42U,
  0xbd4f8abbbdc24b68U, 0xbdb50c153c1ef7e1U, 0xbd6a09603c659eefU, 0xbdc24b68bdea0960U,
  0xbdee73d1bc30a1a4U, 0xbdd1bff33dcb204aU, 0x3c9622ff3b0d4e1dU, 0xbdc6b5d9bd8f8355U,
  0xbc9ef7e13d7bb324U, 0xbd397686bd800ecaU, 0xbd9858373db0a1a4U, 0xbbb0a1a43cee73d1U,
  0xbdb2d6dd3d61347eU, 0xbe06ae74bd7bb324U, 0xbd7748b33d9a8d70U, 0x3dc6b5d93d88e3acU,
  0x3bf748b3bc424b68U, 0xbdcb204abc53f52cU, 0x3c9622ffbc9622ffU, 0x3da5978abde1347eU,
  0xbb53f52c3d84793bU, 0xbd4f8abb3db0a1a4U, 0xbdc480a0bd9a8d70U, 0x3d424b68bda7ccc2U,
  0xbbd3f52c3cb97686U, 0x3c9ef7e13a8d4e1dU, 0xbd04793bbce59eefU, 0xbb0d4e1dbdd62a64U,
  0xbd86ae743c1ef7e1U, 0x3d86ae743dc24b68U, 0xbdaa01fbbd8b18e5U, 0xbd2c3733bc9ef7e1U,
  0xbd4f8abbbd236252U, 0xbd8d4e1dbd4f8abbU, 0xbd585f9cbd11b88eU, 0x3ccb204abda36252U,
  0x3d9cc2a8bdd3f52cU, 0xbd1622ffbda5978aU, 0x3d53f52cbdf2de42U, 0xbdaa01fb3cdcca0dU,
  0xbdae6c6cbc84793bU, 0x3d4f8abb3db2d6ddU, 0x3cf748b3bd61347eU, 0xbdcd5582bdda94d5U,
  0x3d11b88e3b53f52cU, 0xbe0c3381bcf748b3U, 0x3d1ef7e13da12d19U, 0xbdbbabbf3dac3733U,
  0x3d46b5d9bd88e3acU, 0xbd53f52c3d84793bU, 0xbdf2de42U, 0x3bf748b3U,
  0xbd8b18e5bde59eefU, 0xbbb0a1a4bd824403U, 0xbd72de42bccb204aU, 0xbc53f52cbdf748b3U,
  0xbdbbabbfbd4b204aU, 0xbd30a1a4bca7ccc2U, 0x3c9622ff3cd3f52cU, 0xbd7748b3U,
  0x3ddeff463cb0a1a4U, 0xbdd85f9cbcb97686U, 0x3d9a8d703d93edc6U, 0xbdcf8abbbd9cc2a8U,
  0x3e0d2856beb285d6U, 0xbde87eabbd687eabU, 0x3d4748003ea1ea80U, 0x3e4f95abbe0d2856U,
  0x3c04daabbe157600U, 0x3e0d2856bec74800U, 0xbc04daab3d04daabU, 0x3e2611563d261156U,
  0x3e3efa56be474800U, 0xbf0f3bc0bf83d0f6U, 0x3e3efa56be04daabU, 0xbe36acab3d687eabU,
  0xbed3bc81be157600U, 0xbcc74800be157600U, 0xbe36acab3dc74800U, 0x3e8901803d261156U,
  0x3e157600bebad380U, 0xbd957600bdf91a01U, 0xbc04daab3dd7e356U, 0x3e157600bf02c740U,
  0x3da61156be914f2bU, 0x3e791a01be9dc3abU, 0x3c84daabbd04daabU, 0x3c84daab3e2e5f00U,
  0x3e1dc3abbdf91a01U, 0xbf04daabbf5e1d96U, 0x3d957600be8d2856U, 0xbe9dc3abbd957600U,
  0xbe9dc3abbe687eabU, 0xbcc74800be1dc3abU, 0xbdd7e3563d474800U, 0x3e70cc563e603101U,
  0x3da61156bee457d6U, 0xbedc0a2bbee03101U, 0xbdd7e3563e70cc56U, 0x3e04daabbee03101U,
  0x3d261156bec3212bU, 0x3e57e356be890180U, 0xbe2e5f003e0d2856U, 0x3e57e3563d261156U,
  0x3e2e5f003cc74800U, 0xbee87eabbc84daabU, 0x3d957600be4f95abU, 0xbee87eab3d84daabU,
  0xbea61156be2e5f00U, 0xbe157600beaa382bU, 0xbecf95ab3dc74800U, 0x3eaa382b3d84daabU,
  0x3d687eabbeeca581U, 0xbe80b3d6bed3bc81U, 0xbe3efa563e3efa56U, 0x3df91a01be890180U,
  0x3d687eabbec3212bU, 0x3e474800be999cd6U, 0xbeb285d63e1dc3abU, 0x3df91a013c04daabU,
  0x3d687eabbe0d2856U, 0xbec3212b3e157600U, 0xbc04daabbd84daabU, 0xbea1ea80bd957600U,
  0xbec3212bbe890180U, 0xbda61156be80b3d6U, 0xbeae5f003d261156U, 0x3ecf95ab3d957600U,
  0x3e0d2856befd40d6U, 0xbe687eabbe687eabU, 0xbed7e3563de87eabU, 0x3e0d2856bebefa56U,
  0x3df91a01be603101U, 0x3e36acabbea1ea80U, 0xbe1dc3ab3df91a01U, 0x3c84daab3df91a01U,
  0x3e04daabbdb6acabU, 0xbf74f32bbd687eabU, 0x3d04daab3c84daabU, 0xbe687eabbda61156U,
  0xbe474800bd474800U, 0xbdc74800be57e356U, 0xbde87eab3df91a01U, 0x3e70cc563e70cc56U,
  0xbcfa16babde53f7fU, 0xbda6b9d1be11e297U, 0x3e26b9d13e31256eU, 0x3de53f7fbed59e14U,
  0xbda6b9d1bde53f7fU, 0x3e8cacc8bf171865U, 0xbda6b9d13c26b9d1U, 0xbcfa16ba3dbb910bU,
  0x3e26b9d1be31256eU, 0xbf04dc13bf8b5f55U, 0x3e26b9d13e1c4e34U, 0x3de53f7fbd506845U,
  0xbeb65b3dbd91e297U, 0xbe6fab1c3d7a16baU, 0x3da6b9d13e3b910bU, 0x3ed59e143e1c4e34U,
  0x3d7a16babe8cacc8U, 0xbd7a16babe45fca8U, 0x3e11e2973e82412bU, 0x3e0776fabeefab1cU,
  0x3da6b9d1be6fab1cU, 0x3e11e297be971865U, 0xbe0776fabcfa16baU, 0x3c26b9d13e26b9d1U,
  0x3e31256ebdd06845U, 0xbf2befa0bfa56c5dU, 0x3de53f7f3dd06845U, 0xbe11e2973d506845U,
  0xbe9c4e34be506845U, 0xbc26b9d1be0776faU, 0xbd5068453e1c4e34U, 0x3e5ad3e23ca6b9d1U,
  0x3e1c4e34be6fab1cU, 0xbcfa16babe506845U, 0x3d7a16ba3ca6b9d1U, 0x3e31256ebe9c4e34U,
  0x3d91e297be8cacc8U, 0x3da6b9d1bea6b9d1U, 0x3ca6b9d13de53f7fU, 0x3d5068453d91e297U,
  0x3d506845bd506845U, 0xbf218402be6fab1cU, 0xbd7a16ba3d26b9d1U, 0xbea18402bda6b9d1U,
  0xbe7a16babe653f7fU, 0xbe5ad3e2be26b9d1U, 0xbdfa16ba3d506845U, 0x3e6fab1c3e31256eU,
  0x3e1c4e34beb65b3dU, 0xbe9c4e34be6fab1cU, 0xbd5068453e45fca8U, 0x3e1c4e34bea6b9d1U,
  0x3de53f7fbeabefa0U, 0x3c26b9d1be5ad3e2U, 0xbe3b910bbcfa16baU, 0x3e1c4e343e45fca8U,
  0x3e26b9d1be26b9d1U, 0xbeff4c883ca6b9d1U, 0x3cfa16babd7a16baU, 0xbe1c4e343de53f7fU,
  0xbec5fca8be6fab1cU, 0xbe0776fabde53f7fU, 0xbea184023d26b9d1U, 0x3e9c4e343cfa16baU,
  0xbeefab1cU, 0xbde53f7fbe506845U, 0xbecb32773dd06845U, 0x3da6b9d1bedad3e2U,
  0xbcfa16babeb65b3dU, 0x3d7a16babe8776faU, 0xbe82412b3e31256eU, 0x3e3b910b3e31256eU,
  0x3e5ad3e2be31256eU, 0xbf1ee91bbe5ad3e2U, 0x3e0776fa00000000U, 0xbe3b910b3d506845U,
  0xbeabefa0be3b910bU, 0xbdd06845be45fca8U, 0xbe11e2973e1c4e34U, 0x3e9c4e343dbb910bU,
  0xbe47dc643f0844d0U, 0x3d115a773e50f20bU, 0xbcda07b23dc7dc64U, 0x3e35b1153efe5e50U,
  0xbc915a77bc115a77U, 0x3d7e5e503f4a21cdU, 0x3e50f20b00000000U, 0xbda385c6bd5a07b2U,
  0xbe7e5e503ef548a9U, 0x3f631d5a3f8f150dU, 0x3dec33013e1a701eU, 0x3da385c6bdc7dc64U,
  0x3ee31d5a3e47dc64U, 0xbd35b1153d35b115U, 0x3cda07b2be3ec6bcU, 0xbe915a773e1a701eU,
  0xbd915a773f0a8a39U, 0x3dec33013d115a77U, 0xbdda07b23e2385c6U, 0x3dfe5e503ed57cdfU,
  0x3e2c9b6d3c915a77U, 0x3d35b1153f631d5aU, 0xbc115a773db5b115U, 0x3c915a77bd115a77U,
  0xbe5a07b23f1efaf2U, 0x3f79d37d3f8ccfa3U, 0x3e5a07b23e115a77U, 0x3d35b115bdfe5e50U,
  0x3efe5e503dda07b2U, 0xbcda07b23e2385c6U, 0x3e115a77bdb5b115U, 0xbe115a773e3ec6bcU,
  0xbe1a701e3ee7a82eU, 0x3d35b1153d5a07b2U, 0xbcda07b23d5a07b2U, 0x3e3ec6bc3eba3be8U,
  0x3da385c63c115a77U, 0x3cda07b23f83b9fcU, 0xbcda07b23e50f20bU, 0x3e0844d03c115a77U,
  0xbc915a773f139fe1U, 0x3f4351903f896784U, 0xbc915a773c915a77U, 0x3dda07b23c915a77U,
  0x3f05ff663e0844d0U, 0xbc115a773e631d5aU, 0xbcda07b2bd115a77U, 0xbe8844d03d115a77U,
  0xbdda07b23f28109aU, 0xbcda07b23d5a07b2U, 0xbd7e5e503e2385c6U, 0x3d115a773ef9d37dU,
  0xbc915a77bda385c6U, 0x3e631d5a3f9037c2U, 0xbd115a773e1a701eU, 0xbd115a77be1a701eU,
  0xbc115a773f115a77U, 0x3f410c263dc7dc64U, 0xbd35b115bc915a77U, 0xbd35b115bd7e5e50U,
  0x3f0174923dec3301U, 0xbdda07b23d115a77U, 0x3e115a77bc915a77U, 0xbe47dc643dec3301U,
  0xbe5a07b23f139fe1U, 0x3e2385c63d7e5e50U, 0xbd115a773c115a77U, 0x3e3ec6bc3f1efaf2U,
  0xbcda07b23d115a77U, 0x3e2c9b6d3f8baceeU, 0xbc115a773dfe5e50U, 0xbe915a77be1a701eU,
  0xbc115a773ea8109aU, 0x3f4eaca13d115a77U, 0xbd35b1153db5b115U, 0x3d35b115bd7e5e50U,
  0x3eec33013e2385c6U, 0xbe1a701e3dfe5e50U, 0x3cda07b2bd5a07b2U, 0xbe8ccfa33c915a77U,
  0x3c6e54bdbe8d8250U, 0xbe060faabe060faaU, 0xbe49177fbe57fccbU, 0xbd6e54bdbeba3234U,
  0x3e89c8fdbc6e54bdU, 0xbe0d8250be9c679cU, 0xbe0d8250bdc1a4daU, 0x3e23da423ddf6f71U,
  0xbcee54bdbe3a3234U, 0xbe6e54bdbda3da42U, 0xbe060faa3d94f4f6U, 0x3d508a25U,
  0x3bee54bd3d508a25U, 0x3e66e2173cee54bdU, 0x3c6e54bd3cb2bf8eU, 0xbd860faabe98ae49U,
  0x3ddf6f71be23da42U, 0xbd508a25bdd08a25U, 0xbd6e54bdbe49177fU, 0xbcee54bdbeab4ce8U,
  0x3e98ae49bd94f4f6U, 0xbe3a3234be5f6f71U, 0xbd6e54bdbda3da42U, 0x3e2b4ce8bd32bf8eU,
  0x3dee54bdbe860faaU, 0x3d94f4f6U, 0xbdc1a4da3e57fccbU, 0xbcee54bd3d94f4f6U,
  0xbe2b4ce8bd32bf8eU, 0x3e6e54bdbd14f4f6U, 0xbd32bf8e3dfd3a09U, 0xbdee54bdbe89c8fdU,
  0xbd14f4f6bdd08a25U, 0xbc6e54bdbcb2bf8eU, 0xbd14f4f6bdb2bf8eU, 0x3d860faabe41a4daU,
  0xbc6e54bd3dfd3a09U, 0x3c6e54bdbf043301U, 0x3d508a25bdd08a25U, 0x3e32bf8e3da3da42U,
  0x3d14f4f6beab4ce8U, 0x3e6e54bdbea020efU, 0xbdee54bd3e9c679cU, 0x3e060faa3d94f4f6U,
  0xbe3a3234bd32bf8eU, 0x3e1c679c3d508a25U, 0x3da3da423e3a3234U, 0xbeee54bdbe23da42U,
  0x3d32bf8ebd94f4f6U, 0x3e1c679cbcee54bdU, 0xbd14f4f63da3da42U, 0x3ddf6f71be9c679cU,
  0xbeab4ce83d860faaU, 0xbf6c7814U, 0x3c6e54bd3d94f4f6U, 0x3cb2bf8ebd94f4f6U,
  0x3bee54bdbf1e4446U, 0xbe825657bf1a8af3U, 0xbd6e54bd3e32bf8eU, 0x3e1c679c3d32bf8eU,
  0xbe98ae493cee54bdU, 0x3cee54bd3cb2bf8eU, 0x3dee54bd3d94f4f6U, 0xbf13184dbbee54bdU,
  0xbd6e54bdbe0d8250U, 0x3db2bf8e3c6e54bdU, 0xbcee54bd3dc1a4daU, 0x3cb2bf8ebeb2bf8eU,
  0xbf41a4da3e060faaU, 0xbf29703eU, 0x3e060faabdb2bf8eU, 0xbe5f6f71be6e54bdU,
  0xbf025657bf544378U, 0xbeaf063b3f060faaU, 0x3c6e54bd3e66e217U, 0x3dfd3a093db2bf8eU,
  0xbe3a3234bc6e54bdU, 0x3e14f4f6bc6e54bdU, 0x3d94f4f63d508a25U, 0xbe75c763bdfd3a09U,
  0x3d31e59f3d64b983U, 0x3dbe9a98bd7e2375U, 0x3db1e59fbdf16e7cU, 0xbdcb4f913c987badU,
  0xbe44f5143e0bc6b4U, 0xbc4b4f91bf49b8f2U, 0x3cfe2375bcfe2375U, 0xbd187bad3c987badU,
  0xbdfe2375bec1c7d6U, 0xbed1aa0e00000000U, 0xbdfe23753e2b8b22U, 0x3e1221303db1e59fU,
  0xbe716e7cbd8bc6b4U, 0x3e2b8b22bd31e59fU, 0x3d31e59f00000000U, 0xbdf16e7cbe2b8b22U,
  0xbd4b4f913d987badU, 0xbbcb4f913d8bc6b4U, 0x3dbe9a98bdfe2375U, 0xbbcb4f91bd7e2375U,
  0xbeb1e59f3e0bc6b4U, 0x3bcb4f91bf38401bU, 0x3d31e59fbd64b983U, 0xbe0bc6b4be122130U,
  0xbe716e7cbebb6d5aU, 0xbea20368bed4d74cU, 0xbccb4f913d4b4f91U, 0x3e1221303d31e59fU,
  0x3c4b4f913c987badU, 0x3e1221303d31e59fU, 0x3e1ed6293da530a6U, 0x3bcb4f91bbcb4f91U,
  0xbe2b8b223dbe9a98U, 0x3e31e59f3db1e59fU, 0x3d187badbdb1e59fU, 0xbd7e2375be7e2375U,
  0xbee4b98300000000U, 0xbc4b4f91bf154e6eU, 0x3e38401bbcfe2375U, 0xbd8bc6b4be056c37U,
  0xbe9ed629be954e6eU, 0xbe8bc6b4bec82253U, 0x3e51aa0e3da530a6U, 0x3d8bc6b4bd7e2375U,
  0xbde4b983bcfe2375U, 0x3e1221303ccb4f91U, 0x3cfe2375bcfe2375U, 0x3d4b4f9100000000U,
  0xbdcb4f91be187badU, 0x3dfe2375bd187badU, 0x3d8bc6b4bbcb4f91U, 0xbe922130bf0bc6b4U,
  0xbec822533dbe9a98U, 0xbe64b983bf206cc8U, 0x3d7e23753d7e2375U, 0x3e1221303bcb4f91U,
  0xbed1aa0ebe51aa0eU, 0xbeb1e59fbe823ef9U, 0x3dfe23753e58048aU, 0xbd4b4f913dd8048aU,
  0x3d8bc6b4bdb1e59fU, 0x3dcb4f913bcb4f91U, 0x3db1e59f3df16e7cU, 0xbd8bc6b4bcfe2375U,
  0x3dfe2375be8ef3f2U, 0xbd31e59fbbcb4f91U, 0x3d8bc6b4bec82253U, 0xbe8ef3f2bf1d3f8aU,
  0x3e51aa0e3d7e2375U, 0xbe9ed629bf435e75U, 0xbd7e2375bbcb4f91U, 0x3e2b8b223e056c37U,
  0x3d4b4f91beaeb861U, 0xbeb8401bbc987badU, 0x3d7e23753d187badU, 0x3ccb4f913dbe9a98U,
  0xbd31e59fbd64b983U, 0x3cfe2375bdd8048aU, 0x3dbe9a983e3e9a98U, 0xbde4b983bde4b983U,
  0x3cc88e363ee19ffdU, 0x3e0e0f663e27212dU, 0xbd488e363c85b424U, 0x3dfab1c43f07caf5U,
  0x3e4032f4bd488e36U, 0x3e488e363f35c0e1U, 0x3da7212d3d966aa8U, 0x3d488e36be0e0f66U,
  0xbe37d7b23ef25681U, 0x3f572dea3f807b1bU, 0x3cc88e363dfab1c4U, 0x3cc88e36U,
  0x3ee5cd9e3da7212dU, 0x3d85b4243d85b424U, 0x3d488e36bc85b424U, 0xbdc88e363d488e36U,
  0xbc05b4243f0bf896U, 0x3d27212d3d488e36U, 0xbd85b4243e0e0f66U, 0x3e37d7b23f039d53U,
  0x3da7212d3de9fb3fU, 0x3e50e9783f3c0553U, 0x3c05b4243d05b424U, 0x3c85b424bdb7d7b2U,
  0xbe05b4243ed944baU, 0x3f619ffd3f768422U, 0x3e4032f43db7d7b2U, 0xbcc88e36be0e0f66U,
  0x3eb3aa103e05b424U, 0xbd05b4243e488e36U, 0x3dfab1c4bdfab1c4U, 0xbd69fb3f3e37d7b2U,
  0xbd488e363ef68422U, 0x3dfab1c43e05b424U, 0xbcc88e363e2f7c6fU, 0x3dfab1c43efab1c4U,
  0x3e50e9783d69fb3fU, 0x3e166aa83f27212dU, 0xbda7212dbc05b424U, 0x3dc88e36bd488e36U,
  0xbdd944ba3eccbbd7U, 0x3f3c05533f84a8bcU, 0xbd05b4243e05b424U, 0x3dd944babd69fb3fU,
  0x3ed0e9783e50e978U, 0x3da7212d3e488e36U, 0xbcc88e36bd69fb3fU, 0xbe85b4243d69fb3fU,
  0xbdd944ba3f102637U, 0xbc85b4243d488e36U, 0xbcc88e36bc05b424U, 0x3de9fb3f3ee19ffdU,
  0x3e05b424bc85b424U, 0x3dc88e363f3e1c23U, 0x3db7d7b23dd944baU, 0x3d69fb3fbe37d7b2U,
  0xbda7212d3ec46095U, 0x3f7684223db7d7b2U, 0xbd05b4243d69fb3fU, 0xbd69fb3f3c85b424U,
  0x3ec88e363e619ffdU, 0x3d27212d3e89e1c5U, 0x3d05b424bdfab1c4U, 0xbde9fb3fbd27212dU,
  0xbe488e363ee19ffdU, 0x3da7212d3dc88e36U, 0xbd69fb3f3d85b424U, 0x3e7ab1c43f123d07U,
  0x3e0e0f66bd488e36U, 0x3dc88e363f5b5b8bU, 0x3dfab1c43db7d7b2U, 0x3c05b424bdfab1c4U,
  0xbe7256813ef25681U, 0x3f4249c43c05b424U, 0xbd85b4243d69fb3fU, 0x3cc88e363d05b424U,
  0x3edd725c3dc88e36U, 0xbdc88e363e37d7b2U, 0x3e2f7c6f3d27212dU, 0xbe37d7b23e27212dU,
  0xbd64caa83eab97feU, 0x3d64caa83e057638U, 0xbe0576383dab97feU, 0x3ce4caa83e93c2e2U,
  0x3d8576383de4caa8U, 0xbc18871b3f352070U, 0x3c98871b3e057638U, 0xbd857638be0efea9U,
  0xbe4831533ed1b9c5U, 0x3f4831533f97560dU, 0x3e3ea8e2bd3ea8e2U, 0x3d64caa8bdd1b9c5U,
  0x3e93c2e2bd18871bU, 0xbe220f8d3c98871bU, 0x3d98871bbdd1b9c5U, 0xbce4caa83d18871bU,
  0xbce4caa83ee98ee1U, 0xbd3ea8e23ce4caa8U, 0xbce4caa83d857638U, 0x3e0efea93ec83153U,
  0x3e857638bc98871bU, 0x3d98871b3f51b9c5U, 0x3d98871b3df7db8cU, 0x3dd1b9c5bdd1b9c5U,
  0xbe4831533f2935e2U, 0x3f37828c3f8c9c8dU, 0x3e2b97febc18871bU, 0xbd64caa83de4caa8U,
  0x3e8a3a70bd857638U, 0xbe0efea93e0efea9U, 0x3d98871bbe0efea9U, 0xbe0efea93d18871bU,
  0xbd8576383ea6d3c6U, 0x3dbea8e23dd1b9c5U, 0xbc98871bbc98871bU, 0x3d98871b3ee4caa8U,
  0x3e64caa8bc18871bU, 0x3e3520703f731753U, 0xbde4caa8bd98871bU, 0xbce4caa83c98871bU,
  0xbde4caa83f057638U, 0x3f3ea8e23f75796fU, 0x3dab97febc98871bU, 0x3c18871bbd3ea8e2U,
  0x3ec36d1b3dab97feU, 0x3d18871bbd857638U, 0x3dbea8e200000000U, 0xbd857638bd3ea8e2U,
  0x3c98871b3ef7db8cU, 0x3d64caa83d857638U, 0x3ce4caa83e352070U, 0x3dab97fe3f18871bU,
  0x3dd1b9c5bd857638U, 0x3e4831533f75796fU, 0xbe0576383d857638U, 0xbce4caa8bd3ea8e2U,
  0xbdd1b9c53ee4caa8U, 0x3f7a3da83c98871bU, 0xbdf7db8cbd64caa8U, 0x3d18871bbd64caa8U,
  0x3ee98ee13df7db8cU, 0xbc18871bbc98871bU, 0xbc98871bbe0efea9U, 0x3d64caa83df7db8cU,
  0xbe3520703edb4237U, 0x3e18871b3e352070U, 0xbe0576383e51b9c5U, 0x3e3520703ef7db8cU,
  0xbdab97feU, 0x3e6e531a3f672cc5U, 0xbd857638bd3ea8e2U, 0xbc18871bbdbea8e2U,
  0xbd3ea8e23efc9fc5U, 0x3f672cc5bce4caa8U, 0xbce4caa83c98871bU, 0x3d18871bbc18871bU,
  0x3e9d4b5400000000U, 0x3dab97fe3d18871bU, 0xbd857638bd3ea8e2U, 0x3d8576383e220f8dU,
  0xbdd133b93f275c94U, 0xbcfb0adebe07fb38U, 0x3d927102be1ce6cbU, 0xbc275c943f75cff9U,
  0x3e1271023e46bdf0U, 0x3da75c943f566e9eU, 0xbe07fb38bda75c94U, 0x3e1ce6cbbe1ce6cbU,
  0xbe3c48263f07fb38U, 0x3f68bcbe3f8d361dU, 0x3dfb0ade3ebc4826U, 0xbcfb0ade3cfb0adeU,
  0x3ef09515bca75c94U, 0x3e46bdf0bdbc4826U, 0x3da75c94bdfb0adeU, 0xbd5133b9bd927102U,
  0xbdbc48263f346fd0U, 0x3de61f4c3d7b0adeU, 0x3d275c943ca75c94U, 0x3d7b0ade3f495b62U,
  0x3e1ce6cb3e5133b9U, 0xbd5133b93f1f843dU, 0xbd275c94bd7b0adeU, 0xbd5133b9bda75c94U,
  0x3c275c943f07fb38U, 0x3f5ba9823f927102U, 0x3dbc48263ee0e467U, 0xbd5133b93ca75c94U,
  0x3e87fb383d275c94U, 0x3e275c943c275c94U, 0xbd7b0ade00000000U, 0x3e07fb38bde61f4cU,
  0xbda75c943f39aab4U, 0x3d5133b9bca75c94U, 0xbd5133b93d5133b9U, 0x3e1271023f566e9eU,
  0x3da75c943e7b0adeU, 0x3d7b0ade3f127102U, 0xbc275c943c275c94U, 0x3e1271023cfb0adeU,
  0xbd9271023ef5cff9U, 0x3f855dc63fa0d2f6U, 0x3dfb0ade3f2f34ebU, 0x3ca75c943dbc4826U,
  0x3ed133b9bca75c94U, 0x3e31d25d3ca75c94U, 0xbda75c94bdd133b9U, 0x3ec1830b3d275c94U,
  0xbdd133b93f346fd0U, 0x3da75c94bcfb0adeU, 0xbd5133b93dd133b9U, 0x3ca75c943f6381d9U,
  0x3e661f4c3e709515U, 0x3d7b0ade3f44207dU, 0xbdd133b9bd927102U, 0xbd275c94bcfb0adeU,
  0x3d9271023ed133b9U, 0x3f93bfbb3da75c94U, 0xbcfb0ade3f055dc6U, 0x3d5133b9bdbc4826U,
  0x3ea75c943da75c94U, 0xbdbc48263e275c94U, 0xbd927102bcfb0adeU, 0x3ee61f4c3de61f4cU,
  0x3dd133b93f2221afU, 0x3dfb0adebd275c94U, 0x3cfb0ade3da75c94U, 0x3c275c943f41830bU,
  0x3e1271023e127102U, 0x3dfb0ade3f24bf22U, 0xbcfb0adebd275c94U, 0x3d927102be07fb38U,
  0xbdbc48263ec1830bU, 0x3fa60ddbbda75c94U, 0x3cfb0ade3e87fb38U, 0xbd927102bda75c94U,
  0x3ec1830b3ca75c94U, 0xbdd133b93de61f4cU, 0xbcfb0ade3d927102U, 0x3e3c48263e31d25dU,
  0xbd51f9783f0e2b94U, 0x3dd1f9783d74f861U, 0xbc0bfba53daefa8eU, 0x3e14bb5f3ec07a03U,
  0xbd0bfba500000000U, 0x3d2efa8e3f5ce920U, 0xbcd1f9783daefa8eU, 0xbe033bebbd0bfba5U,
  0xbe14bb5f3f0bfba5U, 0x3f4d999a3f856bd9U, 0x3e6378ec3dc07a03U, 0x3dd1f978bdc07a03U,
  0x3ebc1a263daefa8eU, 0xbd51f9783e2efa8eU, 0x3e2efa8ebe14bb5fU, 0xbe5ab9323e14bb5fU,
  0xbdaefa8e3f128b71U, 0xbc0bfba53e407a03U, 0xbdc07a03bd51f978U, 0x3d8bfba53efdb81bU,
  0x3de378ecbd74f861U, 0x3d9d7b1a3f542966U, 0xbd2efa8ebd0bfba5U, 0x3dc07a03be2efa8eU,
  0xbe407a033eec38a6U, 0x3f4d999a3f72c872U, 0x3e5ab9323c0bfba5U, 0xbc0bfba53d74f861U,
  0x3ec07a033e0bfba5U, 0x3dc07a033d2efa8eU, 0x3df4f861be4939bdU, 0x3d0bfba53c8bfba5U,
  0x3d2efa8e3f286ac3U, 0x3e2efa8e3e4939bdU, 0x3d74f8613d74f861U, 0x3d9d7b1a3edf190fU,
  0x3d9d7b1a3c8bfba5U, 0x3d0bfba53f37ba49U, 0x3daefa8e3d0bfba5U, 0xbcd1f978be407a03U,
  0xbd8bfba53efdb81bU, 0x3f37ba493f8ae3aeU, 0x3d51f9783e263ad4U, 0x3c0bfba5bd2efa8eU,
  0x3eb35a6b3e37ba49U, 0x3d2efa8e3d74f861U, 0xbcd1f978bd2efa8eU, 0xbd2efa8e3e1d7b1aU,
  0xbdd1f9783f312a7dU, 0x3e407a033dd1f978U, 0xbcd1f9783d51f978U, 0x3d74f8613f0bfba5U,
  0xbd51f978bd51f978U, 0x3cd1f9783f5ab932U, 0x3c0bfba53e033bebU, 0xbd51f978bc0bfba5U,
  0xbd2efa8e3eec38a6U, 0x3f65a8db3df4f861U, 0x3d0bfba53df4f861U, 0x3c0bfba5U,
  0x3ee378ec3d74f861U, 0xbd9d7b1a3cd1f978U, 0x3dc07a03bc8bfba5U, 0x3c8bfba53cd1f978U,
  0xbd8bfba53f2a9ab1U, 0x3dd1f9783e6378ecU, 0xbd74f8613d51f978U, 0x3e51f9783ee378ecU,
  0xbcd1f978U, 0x3d8bfba53f4709cfU, 0xbd2efa8e3d74f861U, 0xbe4939bdbe1d7b1aU,
  0xbdf4f8613ef9583eU, 0x3f51f9783d9d7b1aU, 0x3c8bfba53de378ecU, 0x3c0bfba53d8bfba5U,
  0x3ee378ec3e407a03U, 0x3d51f9783e6c38a6U, 0x3e2efa8ebd2efa8eU, 0xbde378ec3e263ad4U,
  0xbd7aa9f9bd1caa3cU, 0xbcbbff7bbdcbaa1aU, 0x3dfaa9f93d1caa3cU, 0x3d8cff9cbe813fa4U,
  0xbc7aa9f9bdeaff59U, 0x3d3bff7bbedf3f62U, 0x3d5b54ba3d3bff7bU, 0x3e052a4c3d5b54baU,
  0xbcfaa9f9U, 0xbee32a0abf78b4a5U, 0x3d1caa3c3dfaa9f9U, 0x3dcbaa1abd5b54baU,
  0xbe94d4ecbe1caa3cU, 0xbd9caa3cbd8cff9cU, 0xbdac54db3e0cff9cU, 0x3e813fa43d7aa9f9U,
  0xbbfaa9f9be537f6aU, 0x3cbbff7bbd8cff9cU, 0x3d9caa3c3e4baa1aU, 0x3e5b54babe7aa9f9U,
  0x3dfaa9f93d7aa9f9U, 0x3e1caa3cbe1caa3cU, 0x3bfaa9f93bfaa9f9U, 0x3d7aa9f900000000U,
  0xbd8cff9cU, 0xbeb03f83bf632a0aU, 0x3deaff593d1caa3cU, 0x3d1caa3cbbfaa9f9U,
  0xbdac54db3cfaa9f9U, 0xbdfaa9f9be14d4ecU, 0x3cfaa9f93cbbff7bU, 0x3eb814d33ddb54baU,
  0x3bfaa9f9bd7aa9f9U, 0x3bfaa9f9bd8cff9cU, 0xbdcbaa1a3e4baa1aU, 0x3deaff59be7aa9f9U,
  0xbd7aa9f9bddb54baU, 0x3d8cff9cbe247f8bU, 0x3d1caa3c3cfaa9f9U, 0x3e1caa3c3e2c54dbU,
  0x3dac54dbbe052a4cU, 0xbf0914f4bf537f6aU, 0x3e0cff9cbd7aa9f9U, 0xbe3bff7b3deaff59U,
  0xbe2c54dbbe3bff7bU, 0xbdcbaa1abe6aff59U, 0xbd5b54ba3dac54dbU, 0x3ebbff7b3e052a4cU,
  0x3dbbff7bbe7aa9f9U, 0xbe43d4cbbe90ea44U, 0xbd9caa3c3e3bff7bU, 0x3e14d4ecbe5b54baU,
  0xbbfaa9f9be1caa3cU, 0x3dbbff7bbe94d4ecU, 0x3bfaa9f93d1caa3cU, 0x3e0cff9c00000000U,
  0x3e4baa1abe5b54baU, 0xbec3d4cb3cbbff7bU, 0x3d8cff9c3cbbff7bU, 0xbe342a2bbcbbff7bU,
  0xbdeaff59be14d4ecU, 0xbbfaa9f9bddb54baU, 0xbd3bff7b3deaff59U, 0x3e8914f43d1caa3cU,
  0x3ddb54babe052a4cU, 0xbcfaa9f9be14d4ecU, 0xbd3bff7b3e0cff9cU, 0x3d8cff9cbe852a4cU,
  0x3d1caa3cbdac54dbU, 0x3d5b54babeac54dbU, 0xbdbbff7bbdac54dbU, 0x3d8cff9c3deaff59U,
  0x3e342a2bbd9caa3cU, 0xbeb03f833e342a2bU, 0x3d5b54ba3d1caa3cU, 0xbcbbff7b3dcbaa1aU,
  0xbd8cff9c3d8cff9cU, 0x3cbbff7b00000000U, 0xbdac54db3c7aa9f9U, 0x3eac54db3e14d4ecU,
  0xbde3491f3eb6a3e7U, 0xbd2258cd3db294e2U, 0xbd01e0a4bc81e0a4U, 0x3e42d0f63eeb6729U,
  0x3db294e23de3491fU, 0x3d42d0f63f3ec1f1U, 0x3db294e23e1a3ac3U, 0xbdf38534be530d0aU,
  0xbdd30d0a3ed71c10U, 0x3f36a3e73f80dce3U, 0x3e5b2b153da258cdU, 0xbc81e0a4bd63491fU,
  0x3e85efa93cc2d0f6U, 0xbd81e0a43e01e0a4U, 0x3dd30d0abe530d0aU, 0xbe4aef003c01e0a4U,
  0xbe01e0a43e530d0aU, 0x3dd30d0a3cc2d0f6U, 0x3da258cd3e01e0a4U, 0x3d63491f3edb2b15U,
  0x3e121cb8bd81e0a4U, 0xbc81e0a43f48e77eU, 0xbdb294e23e2a76d7U, 0x3cc2d0f6bcc2d0f6U,
  0xbdb294e23ed71c10U, 0x3f162bbe3f675824U, 0x3d2258cd3db294e2U, 0x3dc2d0f63c01e0a4U,
  0x3e9e49c83e09feaeU, 0xbd81e0a43e530d0aU, 0x3d81e0a4be01e0a4U, 0xbe3ab2ec3de3491fU,
  0xbd81e0a43eae85dcU, 0x3c81e0a43e4aef00U, 0xbd42d0f63dc2d0f6U, 0x3dc2d0f63ee3491fU,
  0xbd01e0a43d42d0f6U, 0x3da258cd3f4aef00U, 0x3d63491f3e2a76d7U, 0x3dd30d0abe1a3ac3U,
  0xbe01e0a43ebab2ecU, 0x3f121cb83f695fa7U, 0x3d01e0a43c01e0a4U, 0x3d01e0a43d63491fU,
  0x3ed71c103e09feaeU, 0xbcc2d0f63d81e0a4U, 0x3d2258cdbd63491fU, 0xbdf38534bd01e0a4U,
  0x3d2258cd3ebab2ecU, 0xbd42d0f63d2258cdU, 0x3d81e0a43e3294e2U, 0x3dc2d0f63edb2b15U,
  0x3d81e0a43c01e0a4U, 0x3df385343f42d0f6U, 0x3d921cb8bd2258cdU, 0xbe121cb8bc01e0a4U,
  0xbe2a76d73ecaef00U, 0x3f4cf6833e2a76d7U, 0x3d01e0a4bdd30d0aU, 0x3cc2d0f63cc2d0f6U,
  0x3ec2d0f63d921cb8U, 0xbd921cb83e3ab2ecU, 0xbd63491f00000000U, 0xbe63491f3db294e2U,
  0x3d01e0a43eae85dcU, 0xbd63491f3e63491fU, 0x3da258cd3c81e0a4U, 0x3e3294e23ee3491fU,
  0x3de3491f3df38534U, 0x3e121cb83f1e49c8U, 0x3d42d0f63e121cb8U, 0xbcc2d0f63cc2d0f6U,
  0xbdb294e23eae85dcU, 0x3f3cba6e3c81e0a4U, 0x3d921cb83dc2d0f6U, 0x3dd30d0abdf38534U,
  0x3e7ba33e3e1a3ac3U, 0xbd2258cd3dd30d0aU, 0xbcc2d0f6be01e0a4U, 0xbe5b2b153df38534U,
  0xbe16e0a73ee250faU, 0x3e0e009d3e852093U, 0xbd5500ecbcd500ecU, 0x3d7881133f02e891U,
  0x3db180c4bc0e009dU, 0x3d5500ec3f3a60ceU, 0xbc8e009dU, 0xbdf88113bd8e009dU,
  0xbe5de0f53f14a8a4U, 0x3f5090e73f8ce49cU, 0x3e4c20e23dd500ecU, 0xbd8e009d3d0e009dU,
  0x3eb180c43d9fc0b1U, 0x3d7881133d3180c4U, 0x3d3180c4be28a0baU, 0xbe4c20e23dc340d8U,
  0xbcd500ec3ec7b0ddU, 0x3c0e009d3e4340d8U, 0xbdb180c43e28a0baU, 0x3e28a0ba3f00b08eU,
  0x3e16e0a7bd9fc0b1U, 0x3e5500ec3f3c98d1U, 0x3d8e009d3d0e009dU, 0x3de6c0ffbe5500ecU,
  0xbe5de0f53f0bc89bU, 0x3f4c20e23f788113U, 0x3e0e009dbc8e009dU, 0x3db180c43d0e009dU,
  0x3f02e8913e0e009dU, 0x3e16e0a7U, 0x3d3180c4be3a60ceU, 0xbdb180c43db180c4U,
  0xbd5500ec3ee250faU, 0x3d9fc0b13e788113U, 0x3dc340d83e1fc0b1U, 0x3c0e009d3ea8a0baU,
  0x3e4340d8bd0e009dU, 0x3de6c0ff3f3c98d1U, 0x3d8e009d3e3180c4U, 0xbcd500ecbd0e009dU,
  0xbcd500ec3ee6c0ffU, 0x3f4e58e43f764910U, 0x3c0e009dbd788113U, 0xbd8e009dbd3180c4U,
  0x3f0758963d5500ecU, 0x3d0e009d3dc340d8U, 0xbd0e009dbc8e009dU, 0xbdb180c43e0e009dU,
  0xbe0e009d3ef4110eU, 0x3e1fc0b13dc340d8U, 0x3d3180c43e28a0baU, 0x3df881133ed500ecU,
  0x3d7881133df88113U, 0x3db180c43f6d6906U, 0x3d8e009d3e052093U, 0x3dd500ecbcd500ecU,
  0xbd7881133ecc20e2U, 0x3f5738ee3c8e009dU, 0x3e0520933dc340d8U, 0xbd8e009dbc8e009dU,
  0x3eefa1093e4340d8U, 0x3d8e009d3e16e0a7U, 0x3cd500ecbe4340d8U, 0xbe28a0ba3db180c4U,
  0xbe0e009d3ee250faU, 0x3d0e009d3e4c20e2U, 0xbd8e009d3cd500ecU, 0x3e1fc0b13f14a8a4U,
  0xbd8e009dbdb180c4U, 0x3e3180c43f5de0f5U, 0x3d3180c43e3a60ceU, 0xbdc340d8be4340d8U,
  0xbd8e009d3eb5f0c9U, 0x3f71d90bbd788113U, 0xbd0e009dbdb180c4U, 0x3c0e009dbd3180c4U,
  0x3ed500ec3db180c4U, 0xbd9fc0b13e6fa109U, 0x3d5500ecbc0e009dU, 0xbe80b08e3e3a60ceU,
  0xbd8480a93c95c918U, 0xbdd2469d3d2cd457U, 0x3da14eb73d8a4378U, 0x3c4f65353dacd457U,
  0xbc95c918bce67074U, 0xbd667074bde951dbU, 0xbdc0fe2ebd71f613U, 0x3da14eb73c8a4378U,
  0xbcb859f6bdc6c0fdU, 0x3d60ada4bd100648U, 0xbcacd4573d5aead4U, 0xbd8a43783ca14eb7U,
  0x3d9006483d9e6d4fU, 0x3dcc83cdbd819f41U, 0xbd71f613bbe67074U, 0x3d329726bde0ada4U,
  0xbbb859f6bce67074U, 0x3d214eb73d60ada4U, 0x3d8480a93d7d7bb2U, 0xbde951dbbdb859f6U,
  0xbd0a4378bd6c3343U, 0xbdc9a265be36e942U, 0xbcfd7bb2bd60ada4U, 0xbdd528043d2cd457U,
  0xbdb5788ebdfd7bb2U, 0xbdc6c0fdbdcf6535U, 0x3ca14eb73cb859f6U, 0x3c0a4378bdb859f6U,
  0x3dd2469dbd92e7b0U, 0x3d9e6d4fbe271187U, 0xbd1006483b3859f6U, 0x3d271187bd43df95U,
  0xbdd8096c3dc6c0fdU, 0x3be670743da9f2efU, 0x3c8a4378bce67074U, 0xbd8480a93c667074U,
  0xbd0a43783da9f2efU, 0xbcb859f63d667074U, 0x3d0a4378bdb29726U, 0xbe0a4378bccf6535U,
  0xbcdaead4bda4301fU, 0x3da71187bd9b8be8U, 0xbcf1f6133c214eb7U, 0xbdcc83cdbcb859f6U,
  0x3dc6c0fd3d77b8e3U, 0xbc0a4378be29f2efU, 0x3d214eb73cf1f613U, 0x3d0480a9bcf1f613U,
  0x3d9e6d4fbdcf6535U, 0xbc214eb7bd0480a9U, 0x3d6670743dc3df95U, 0xbdb5788ebd98aa80U,
  0x3d100648bd214eb7U, 0xbd95c9183c3859f6U, 0xbde38f0cbd6c3343U, 0x3cdaead43d329726U,
  0x3b3859f6bd92e7b0U, 0x3d3297263dd52804U, 0x3db859f63b8a4378U, 0x3dd8096cbda4301fU,
  0xbdb5788e3dafb5beU, 0x3d2711873d100648U, 0x3d3859f6bd71f613U, 0xbbe670743d271187U,
  0x3c667074bd8d24e0U, 0xbc3859f63d2cd457U, 0x3c3859f6bde38f0cU, 0xbdfd7bb23d8a4378U,
  0x3bb859f6bd2cd457U, 0x3dd2469d3d43df95U, 0x3d95c9183d7d7bb2U, 0xbcdaead4bd2cd457U,
  0xbdef14abbda71187U, 0x3dc6c0fdbd271187U, 0x3d15c918bdddcc3cU, 0xbd876211bd900648U,
  0xbcacd457bcc3df95U, 0xbd43df95be1cfc9bU, 0x3c8a43783c667074U, 0xbdc3df95bcc3df95U,
  0xbd06be8e3e0b8e81U, 0x3db6de0a3d53bdbaU, 0xbdca1dd53b99fe59U, 0x3d905e733eebcd78U,
  0xbd7a3d51bc19fe59U, 0x3e239e3f3efa3d51U, 0x3dca1dd5bd06be8eU, 0x3d06be8e3d06be8eU,
  0x3d19fe593ee6fd86U, 0x3ebe15f63e5d5da0U, 0x3df09d6bbd905e73U, 0x3e105e733dc07defU,
  0xbd53bdba3d407defU, 0x3d19fe59bdc07defU, 0x3d66fd86U, 0xbd99fe593dfa3d51U,
  0xbe152e663e7a3d51U, 0x3d66fd863c99fe59U, 0xbd53bdba3dfa3d51U, 0x3df09d6b3f00ba9eU,
  0x3ce6fd86bd53bdbaU, 0x3e1ece4c3ef56d5eU, 0xbb99fe59bdfa3d51U, 0xbdb6de0abe01ee9bU,
  0xbd905e733f0f2a77U, 0x3e9c66523e6bcd78U, 0x3cc07defbd2d3e24U, 0x3e286e313dca1dd5U,
  0xbcc07defbd06be8eU, 0xbd7a3d513d86be8eU, 0x3e152e66bd2d3e24U, 0xbdad3e24bd7a3d51U,
  0xbd407def3d7a3d51U, 0xbd19fe593da39e3fU, 0x3d905e733d86be8eU, 0x3e0b8e813f0b8e81U,
  0x3e454de2bdca1dd5U, 0x3e239e3f3f18ca5cU, 0x3dca1dd5bcc07defU, 0xbc19fe59bd66fd86U,
  0xbdd3bdba3efa3d51U, 0x3edaf5a73d99fe59U, 0xbd53bdba3d2d3e24U, 0x3da39e3fbdb6de0aU,
  0x3dd3bdbabc66fd86U, 0xbc66fd86bdd3bdbaU, 0x3e286e31bd06be8eU, 0xbcc07defbb99fe59U,
  0x3c19fe593d66fd86U, 0x3ce6fd863e105e73U, 0xbddd5da0bd7a3d51U, 0x3d7a3d513eceedc8U,
  0x3d2d3e243ddd5da0U, 0x3d407def3e952e66U, 0x3e1ece4cbc19fe59U, 0x3d7a3d513d66fd86U,
  0xbd905e733f119270U, 0x3e9c66523b99fe59U, 0xbd407def3dc07defU, 0x3e19fe59bd905e73U,
  0x3c19fe59bc99fe59U, 0x3e454de2bd86be8eU, 0x3c19fe59bd99fe59U, 0xbdd3bdba3c99fe59U,
  0xbd407def3db6de0aU, 0x3e239e3f3e01ee9bU, 0x3db6de0a3de6fd86U, 0xbcc07def3f0df67aU,
  0x3e7a3d513ddd5da0U, 0x3e2d3e243ea60638U, 0x3dc07defbc99fe59U, 0x3e152e663cc07defU,
  0x3d99fe593f0f2a77U, 0x3eb47610bd905e73U, 0xbc66fd86bc19fe59U, 0x3e152e66bd19fe59U,
  0x3dfa3d513d53bdbaU, 0x3e407def3ce6fd86U, 0x3dad3e243d407defU, 0xbe320e17bc66fd86U,
  0x3e32d76fbd7b584aU, 0xbc6802babd8756ecU, 0xbc9aac7cbe028189U, 0xbdfb584abd2e020cU,
  0xbdb7acd3bd2e020cU, 0x3b9aac7cbf088c45U, 0x3da45744bdae020cU, 0x3dfb584a3e1aac7cU,
  0x3da45744be1aac7cU, 0x3dd4ad2abdb7acd3U, 0xbdae020c3dc1579bU, 0x3e1aac7c3db7acd3U,
  0xbe245744bd6802baU, 0x3df1ad82bd8756ecU, 0xbce802babd2e020cU, 0xbe028189be028189U,
  0xbe1aac7cbd9101b4U, 0xbdfb584a3d1aac7cU, 0x3de802ba3d2e020cU, 0xbc9aac7cbdb7acd3U,
  0xbe15d7183b9aac7cU, 0x3cc1579bbf197723U, 0x3d54ad2a3d9101b4U, 0xbe028189be292ca8U,
  0xbe2e020cbe9101b4U, 0xbd9aac7cbd8756ecU, 0x3ce802ba3e292ca8U, 0xbd2e020cU,
  0xbc1aac7cbd1aac7cU, 0x3e2e020c3c1aac7cU, 0x3d1aac7c3e2e020cU, 0xbd54ad2abe0756ecU,
  0x3da457443b9aac7cU, 0x3df1ad8200000000U, 0x3ce802babd9aac7cU, 0x3c1aac7cbe32d76fU,
  0xbe6802ba3df1ad82U, 0xbdae020cbeef42d0U, 0x3d6802babd1aac7cU, 0xbe292ca83dae020cU,
  0xbb9aac7cbe37acd3U, 0xbe0281893d6802baU, 0x3dc1579b3e8756ecU, 0x3e15d7183d7b584aU,
  0xbdfb584a3dc1579bU, 0x3e1aac7c3db7acd3U, 0x3ce802babe41579bU, 0xbdc1579bbe0c2c50U,
  0xbdf1ad82bb9aac7cU, 0x3d41579bbcc1579bU, 0x3dfb584abdcb0263U, 0xbe0c2c50be4fd7c7U,
  0xbe8c2c503e0c2c50U, 0xbdde57f2bed717dcU, 0x3e292ca83d9aac7cU, 0xbe1f81e03dae020cU,
  0xbc6802babe2e020cU, 0xbec1579b3dcb0263U, 0x3d0756ec3e7b584aU, 0x3d9aac7c3dde57f2U,
  0xbd2e020cbd6802baU, 0x3d54ad2a3dfb584aU, 0x3d2e020cU, 0x3dae020cbd2e020cU,
  0xbea1ec92bdcb0263U, 0xbd54ad2abdcb0263U, 0xbdfb584aU, 0xbef682e6be9d172eU,
  0xbe9841ca3df1ad82U, 0xbe71ad82be15d718U, 0x3dc1579b3d8756ecU, 0x3dae020c3e32d76fU,
  0xbee0c2a4bec62cffU, 0xbe9f81e0bd54ad2aU, 0x3db7acd33ce802baU, 0xbd9aac7c3d8756ecU,
  0x3ce802babe245744U, 0xbdf1ad82bb9aac7cU, 0x3d9aac7c3d41579bU, 0x3ce802babdb7acd3U,
  0xbd52776d3eb3c602U, 0x3d2f63863e49b273U, 0xbc0c4f9e3c8c4f9eU, 0x3c0c4f9e3e9dd992U,
  0xbde40161bde40161U, 0x3e38287f3f2b0109U, 0x3e0c4f9e3dd2776dU, 0xbd758b54be52776dU,
  0xbdaf63863eab0109U, 0x3f49b2733f8b36ffU, 0x3dd2776d3dd2776dU, 0x3d758b54be0c4f9eU,
  0x3e7e504e3e2f6386U, 0x3cd2776d3d9dd992U, 0x3d2f6386bd0c4f9eU, 0xbe2f63863e0c4f9eU,
  0xbe2f63863f0a1e60U, 0x3daf63863e2f6386U, 0x3cd2776dbd2f6386U, 0x3cd2776d3ec54ff6U,
  0xbc0c4f9e3c8c4f9eU, 0x3de401613f35f741U, 0x3c0c4f9ebd758b54U, 0xbe5b3c67U,
  0xbd9dd9923f07ed21U, 0x3f49b2733f6a951cU, 0x3e269e8c3c0c4f9eU, 0xbd0c4f9e3d8c4f9eU,
  0x3ec54ff63d758b54U, 0x3cd2776d3e2f6386U, 0x3c0c4f9ebd8c4f9eU, 0xbd758b543df58b54U,
  0xbd2f63863ed2776dU, 0xbc0c4f9e3e269e8cU, 0xbd0c4f9e3d758b54U, 0x3c8c4f9e3efe504eU,
  0xbd9dd9923cd2776dU, 0xbc0c4f9e3f735a16U, 0xbd2f63863daf6386U, 0x3d8c4f9ebdc0ed79U,
  0xbdd2776d3f015966U, 0x3f269e8c3f838aa4U, 0x3cd2776dbd2f6386U, 0x3d2f6386be038aa4U,
  0x3f05bbe3bcd2776dU, 0xbe1514983e038aa4U, 0xbd52776dbe151498U, 0xbdc0ed793d758b54U,
  0x3cd2776d3f0c4f9eU, 0x3d9dd9923e5b3c67U, 0x3dc0ed793dc0ed79U, 0x3daf63863ee863deU,
  0x3c8c4f9ebd9dd992U, 0x3df58b543f5f9ee4U, 0x3d8c4f9e3c8c4f9eU, 0xbdf58b543c8c4f9eU,
  0xbd8c4f9e3ea69e8cU, 0x3f35f7413c8c4f9eU, 0xbdc0ed793de40161U, 0x3d8c4f9ebd9dd992U,
  0x3ea23c0f3d758b54U, 0xbd8c4f9e3e49b273U, 0xbd758b54bd8c4f9eU, 0xbd9dd9923e40ed79U,
  0x3cd2776d3f0c4f9eU, 0x3daf63863de40161U, 0x3d8c4f9e3e038aa4U, 0x3e40ed793ef128d8U,
  0xbd758b54bdd2776dU, 0x3e6401613f3ebc3bU, 0xbd8c4f9e00000000U, 0xbd0c4f9ebe38287fU,
  0x3c8c4f9e3ec9b273U, 0x3f3ebc3bbd758b54U, 0x3cd2776d3e151498U, 0x3d8c4f9ebde40161U,
  0x3e5b3c673d758b54U, 0xbdf58b543e38287fU, 0x3e1dd992bd2f6386U, 0xbe1514983e40ed79U,
  0xbd619f203f14106dU, 0x3d966a153c166a15U, 0xbde19f203d619f20U, 0x3e0d03743efdd303U,
  0xbc166a15bd166a15U, 0x3d966a153f826ffeU, 0x3e0d03743da93758U, 0xbe58387ebe329df9U,
  0xbe619f203ec56b3cU, 0x3f512b853f85f67bU, 0x3df46c623d166a15U, 0x3d166a153c966a15U,
  0x3ef46c623e329df9U, 0xbde19f203e746c62U, 0xbce19f20be1fd0b6U, 0xbe456b3c3e1fd0b6U,
  0xbdced1dd3f2deaa8U, 0x3e329df9U, 0x3d619f20bc966a15U, 0x3e3c049a3eeb05c1U,
  0x3c166a153dbc049aU, 0x3c166a153f6b05c1U, 0xbd619f2000000000U, 0x3c966a15bda93758U,
  0xbc166a153f0f5d1cU, 0x3f4a1e8c3f84c9a7U, 0x3de19f203e0d0374U, 0x3c166a1500000000U,
  0x3e8d03743e1fd0b6U, 0xbdf46c623c966a15U, 0xbd166a15be329df9U, 0xbe746c623d839cd2U,
  0x3d3c049a3f1b1d66U, 0xbce19f203dbc049aU, 0x3d839cd23ce19f20U, 0x3e039cd23e8d0374U,
  0x3e166a153c966a15U, 0x3d166a153f953d41U, 0xbdf46c6200000000U, 0x3d966a15bce19f20U,
  0xbd3c049a3f222a5fU, 0x3f39aaf23f76c60aU, 0xbd619f20bd3c049aU, 0xbc966a15U,
  0x3efdd3033da93758U, 0xbe1fd0b63d839cd2U, 0x3c166a15bdced1ddU, 0xbdced1dd3e039cd2U,
  0x3f53852eU, 0x3ce19f20bc166a15U, 0x3d619f20bce19f20U, 0x3e1fd0b63ed3852eU,
  0xbc166a15bd619f20U, 0x3d3c049a3f8f5d1cU, 0xbdbc049a3d3c049aU, 0x3c166a15bdf46c62U,
  0x3eb7514aU, 0x3f4a1e8c3d619f20U, 0xbce19f203d966a15U, 0x3da93758bdced1ddU,
  0x3ec0b7eb3e0d0374U, 0xbe329df9bd839cd2U, 0xbc166a15bda93758U, 0xbe0d03743dbc049aU,
  0xbe4ed1dd3f4ed1ddU, 0xbd166a153e0d0374U, 0xbde19f203e456b3cU, 0x3e746c623f085023U,
  0xbce19f203ce19f20U, 0x3e6b05c13f897cf7U, 0x3d3c049a3de19f20U, 0xbd619f20bdced1ddU,
  0xbda937583ee65270U, 0x3f5cebcfbe039cd2U, 0xbce19f20bce19f20U, 0x3c166a153c166a15U,
  0x3ec0b7eb3e329df9U, 0xbda937583e329df9U, 0x3c966a153d839cd2U, 0xbe6b05c13e039cd2U,
  0xbd8978e1bea6ee36U, 0xbe134aa8bd1d1c6fU, 0x3d9d1c6f3dd80719U, 0x3e848ffebec94c6eU,
  0x3d6baaa6bd44638bU, 0x3e0978e1bea6ee36U, 0xbe134aa8bc1d1c6fU, 0x3c9d1c6f3db0bffdU,
  0x3e1d1c6fbe580719U, 0xbf2479c4bf9be236U, 0x3debaaa6be30bffdU, 0xbd6baaa63d9d1c6fU,
  0xbe134aa8bd8978e1U, 0xbcebaaa6bd6baaa6U, 0xbdff4e34bcebaaa6U, 0x3e8e61c53e134aa8U,
  0x3dc4638bbe1d1c6fU, 0xbd1d1c6fbe98338cU, 0xbdc4638b3e61d8e0U, 0x3e6baaa6bee1d8e0U,
  0x3d6baaa6be61d8e0U, 0xbea20552U, 0xbdc4638bbdd80719U, 0x3cebaaa63debaaa6U,
  0x3debaaa6be0978e1U, 0xbeba91c4be848ffeU, 0x3db0bffdbd8978e1U, 0xbe61d8e0bc9d1c6fU,
  0xbe61d8e0be3a91c4U, 0xbe134aa8be8978e1U, 0xbe134aa83e1d1c6fU, 0x3e134aa83e44638bU,
  0x3dd80719be9d1c6fU, 0xbe44638bbe848ffeU, 0xbd44638b3db0bffdU, 0x3debaaa6bec4638bU,
  0x3c9d1c6fbe6baaa6U, 0x3debaaa6be134aa8U, 0xbcebaaa63d9d1c6fU, 0x3dc4638b3db0bffdU,
  0x3e26ee36bc1d1c6fU, 0xbe848ffe3c1d1c6fU, 0x3cebaaa6be8978e1U, 0xbed80719bdb0bffdU,
  0xbe0978e1be30bffdU, 0xbe1d1c6fbe848ffeU, 0xbec4638b3e0978e1U, 0x3e0978e13db0bffdU,
  0x3db0bffdbeba91c4U, 0xbe848ffebed31e35U, 0xbc9d1c6fbc1d1c6fU, 0x3d44638bbea6ee36U,
  0x3cebaaa6be1d1c6fU, 0x3c1d1c6fbe757c6dU, 0xbe61d8e000000000U, 0x3e0978e13db0bffdU,
  0x3e30bffdbe44638bU, 0xbe848ffe3e134aa8U, 0x3c9d1c6fbdb0bffdU, 0xbe6baaa63dd80719U,
  0xbe6baaa6bdebaaa6U, 0xbd6baaa6be580719U, 0xbdff4e343d6baaa6U, 0x3e8e61c53e26ee36U,
  0x3db0bffdbe934aa8U, 0xbe0978e1be30bffdU, 0xbe3a91c43e30bffdU, 0x3dc4638bbe7f4e34U,
  0x3d6baaa6bd9d1c6fU, 0x3d9d1c6fbec94c6eU, 0xbcebaaa6bc9d1c6fU, 0x3c1d1c6fU,
  0x3e30bffdbe4e3552U, 0xbedceffc3e44638bU, 0xbd44638b3d8978e1U, 0xbd8978e13d8978e1U,
  0xbdb0bffdbdebaaa6U, 0xbdff4e34be4e3552U, 0xbe26ee363cebaaa6U, 0x3e6baaa63e0978e1U,
  0xbdd0b8d73cdaa942U, 0xbdb2e7943b1f06bcU, 0x3cdaa942bda3fef2U, 0xbd5aa9423d6499aeU,
  0xbcdaa9423d5aa942U, 0xbd0b25e4bd28f728U, 0xbd46c86b3d8b25e4U, 0xbd8135793d8b25e4U,
  0xbddaa942bda3fef2U, 0xbddaa942bb1f06bcU, 0x3d787a86bc9f06bcU, 0xbd6e8a1a3c1f06bcU,
  0x3c46c86b3da3fef2U, 0x3c9f06bcbd8b25e4U, 0xbdc1d0353cc6c86bU, 0xbdcbc0a1bc6e8a1aU,
  0xbd46c86b3ddaa942U, 0xbdf38250bbee8a1aU, 0x3d8135793dadef5eU, 0xbdc6c86bbcc6c86bU,
  0xbdcbc0a1bdc1d035U, 0xbd32e7943d0b25e4U, 0xbc46c86b3d32e794U, 0x3c1f06bc3bee8a1aU,
  0xbdb2e7943d013579U, 0xbd6499aebbee8a1aU, 0xbbee8a1abd9a0e86U, 0xbd0135793b9f06bcU,
  0xbde499ae3d951650U, 0xbb1f06bcbd787a86U, 0x3d5aa942bd9f06bcU, 0xbdd5b10dbdc6c86bU,
  0xbdd5b10dbda3fef2U, 0x3d862daf3d151650U, 0x3dc1d0353db2e794U, 0x3d46c86bbd9f06bcU,
  0xbd3cd7ff3c46c86bU, 0xbcdaa942be013579U, 0x3cdaa942bdee8a1aU, 0x3dbcd7ffbc9f06bcU,
  0xbdee8a1abd1f06bcU, 0x3dcbc0a13e6499aeU, 0x3cdaa942bc8b25e4U, 0x3d6e8a1abcb2e794U,
  0xbd9f06bc3d1f06bcU, 0xbc1f06bcbd9f06bcU, 0x3c8b25e43d151650U, 0x3b1f06bcbc46c86bU,
  0xbd3cd7ff3d787a86U, 0xbdadef5ebe013579U, 0xbd9a0e863cee8a1aU, 0x3c6e8a1abdb7dfc9U,
  0xbddaa9423c46c86bU, 0x3d6e8a1abb1f06bcU, 0xbd32e794be101e1aU, 0x3da8f728bdfd72bcU,
  0xbdcbc0a13d151650U, 0xbd0b25e43e9dc8afU, 0x3dc6c86b3dc1d035U, 0x3d0135793d787a86U,
  0xbcb2e794bd013579U, 0xbddaa9423d013579U, 0xbd6499aebd5aa942U, 0xbd8135793c46c86bU,
  0xbd5aa9423df38250U, 0x3dcbc0a1bd013579U, 0xbcdaa9423bee8a1aU, 0x3c8b25e43e08a9caU,
  0xbdbcd7ffbd151650U, 0x3dadef5ebdb7dfc9U, 0xbc46c86bbd6499aeU, 0x3dc6c86bbda8f728U,
  0xbd6e8a1a3ddfa178U, 0x3c1f06bc3dd5b10dU, 0x3dc6c86b3dc1d035U, 0x3b9f06bcbbee8a1aU,
  0x3c46c86bbd862dafU, 0x3c8b25e4be03b194U, 0x3d9a0e863d32e794U, 0x3cee8a1a3d50b8d7U,
  0xbf25044abd8f25a6U, 0x3d5eac573e6e9414U, 0x3e971984bed6b878U, 0xbe7687f2be46d0bbU,
  0xbf2701413dee9414U, 0xbbfe7bd1bf7c7ed9U, 0x3e56b8783e1f0d63U, 0xbdcec49abee2a646U,
  0xbf2afb30bf013ae0U, 0xbf3edcddbefa81e2U, 0x3dbedcdd3daef520U, 0x3dfe7bd1bd9f0d63U,
  0xbe9b13733d8f25a6U, 0xbdaef5203cbedcddU, 0x3daef520bebedcddU, 0xbf6e94143e270141U,
  0x3cfe7bd1be1f0d63U, 0x3dbedcddbc7e7bd1U, 0x3d5eac57be8b2bb6U, 0xbe56b878bed2be89U,
  0x3e56b8783bfe7bd1U, 0xbe66a035bf48cdb3U, 0x3daef5203e1f0d63U, 0x3e4ec49a3d1f0d63U,
  0x3dbedcddbebedcddU, 0xbebedcddbdaef520U, 0x3e8f25a63e46d0bbU, 0x3e4ec49a3cfe7bd1U,
  0xbe9719843d1f0d63U, 0x3d7e7bd1bd1f0d63U, 0x3cfe7bd13cbedcddU, 0xbf38e5f6bc7e7bd1U,
  0x3e36e8febe971984U, 0x3e171984bdcec49aU, 0x3cfe7bd1bec6d0bbU, 0xbf131f95bf210a5aU,
  0x3dfe7bd13d5eac57U, 0xbddeac57be931f95U, 0x3e0f25a63dcec49aU, 0x3e5eac573ddeac57U,
  0xbd3edcddbd9f0d63U, 0xbedeac573d1f0d63U, 0x3e46d0bb3e0731c7U, 0x3e2701413dcec49aU,
  0xbcfe7bd1bdee9414U, 0x3cbedcdd3d1f0d63U, 0x3bfe7bd13dbedcddU, 0xbf092ebfbe171984U,
  0x3d5eac57be9f0d63U, 0x3e6e9414bc7e7bd1U, 0x3d1f0d63be270141U, 0xbee6a035bf3cdfe5U,
  0x3d7e7bd1bdfe7bd1U, 0xbdbedcddbdbedcddU, 0x3daef520bc7e7bd1U, 0x3dee94143e1f0d63U,
  0x3e46d0bbbd8f25a6U, 0xbeea9a25bd8f25a6U, 0x3e2ef5203e36e8feU, 0x3c7e7bd1bd1f0d63U,
  0x3cbedcdd3ddeac57U, 0xbe9b1373bd3edcddU, 0x3e0f25a63bfe7bd1U, 0xbed2be89bd8f25a6U,
  0x3cbedcddbebedcddU, 0x3d1f0d633cfe7bd1U, 0xbd5eac57be56b878U, 0xbf2cf828bf1f0d63U,
  0x3d7e7bd1be36e8feU, 0xbe8b2bb6be270141U, 0x3d3edcdd3bfe7bd1U, 0x3e931f953d3edcddU,
  0x3daef520be7687f2U, 0xbee2a646bd7e7bd1U, 0x3c7e7bd1bd9f0d63U, 0xbe931f953d7e7bd1U,
  0x3bfe7bd1bf19167cU, 0xbebedcddbf2cf828U, 0xbe46d0bb3e66a035U, 0xbea30752be4ec49aU,
  0x3db4286bbea8e5e4U, 0xbe4aad78bd34286bU, 0x3d9da35e3dcaad78U, 0x3db4286bbeb9c9aeU,
  0x3d9da35ebe613286U, 0x3e77b793be34286bU, 0xbdcaad783df7b793U, 0x3cb4286b3df7b793U,
  0xbd071e5000000000U, 0xbf34286bbfb2c01aU, 0x3e28e5e43cb4286bU, 0xbcb4286bbd9da35eU,
  0xbea344a1be4aad78U, 0xbe77b793bd9da35eU, 0xbd071e503db4286bU, 0x3eb4286b3e55efffU,
  0x3d34286bbe4aad78U, 0xbe1da35ebe98021aU, 0x3de13286U, 0x3e4aad78bee6d3c9U,
  0x3df7b793bde13286U, 0x3e3f6af2be55efffU, 0xbcb4286b3d871e50U, 0x3d34286bbc34286bU,
  0x3e1260d73cb4286bU, 0xbf2344a1be6c750cU, 0x3e071e50bdb4286bU, 0xbe77b793bdb4286bU,
  0xbe28e5e4be4aad78U, 0xbe4aad78be9260d7U, 0xbe817d0dbc34286bU, 0x3e9da35e3c34286bU,
  0x3d34286bbe55efffU, 0xbeb9c9aebe6c750cU, 0xbcb4286b3d9da35eU, 0x3df7b793be9da35eU,
  0xbe9260d7U, 0x3d613286be28e5e4U, 0xbdb4286b3db4286bU, 0x3de13286bd871e50U,
  0x3d9da35e3cb4286bU, 0xbf153179be1da35eU, 0xbd871e5000000000U, 0xbf044daf3d071e50U,
  0xbe1da35ebe1da35eU, 0xbdf7b793beb9c9aeU, 0xbed5efffbc34286bU, 0x3e9da35e3e34286bU,
  0xbd9da35ebed04ebcU, 0xbedb9142beb4286bU, 0xbe1da35e3e4aad78U, 0x3de13286be8cbf94U,
  0x3c34286bbe3f6af2U, 0x3e071e50be613286U, 0xbe8cbf943df7b793U, 0x3e34286b3dcaad78U,
  0xbd34286bbd34286bU, 0xbf1260d700000000U, 0x3e1260d7bcb4286bU, 0xbe8cbf943d613286U,
  0xbd34286bbe071e50U, 0xbe1da35ebd9da35eU, 0xbe9260d7bd871e50U, 0x3ed04ebc3e613286U,
  0x3c34286bbe77b793U, 0xbdcaad78be1260d7U, 0xbe98021a3e28e5e4U, 0x3e613286be77b793U,
  0x3dcaad78be98021aU, 0x3c34286bbec50c35U, 0xbd6132863d9da35eU, 0x3df7b793bd071e50U,
  0xbcb4286bbd871e50U, 0xbf450c35bd9da35eU, 0xbde13286U, 0xbdb4286b3d071e50U,
  0xbe77b793be3f6af2U, 0x3cb4286bbd9da35eU, 0xbe28e5e4bd871e50U, 0x3ed5efff3d871e50U,
  0xbe37de663f077b74U, 0x3dfb9c203e5e93f5U, 0xbc1ad63b00000000U, 0x3e2e31023ef1eebcU,
  0xbce84158bdfb9c20U, 0x3e418bca3f0c5225U, 0xbc9ad63b3dae3102U, 0xbe2e3102be7b9c20U,
  0xbe54e6913ec6627cU, 0x3f7930c73f60ff4eU, 0x3e418bca3d684158U, 0xbd1ad63b3ce84158U,
  0x3e7b9c20bc9ad63bU, 0xbde841583e4b392dU, 0x3dae3102bdae3102U, 0xbe95ff893e4b392dU,
  0xbe1128d73f139430U, 0x3d418bca3dfb9c20U, 0x3c1ad63b00000000U, 0x3dc18bca3ee84158U,
  0xbd1ad63bbd9ad63bU, 0x3dc18bca3f309c5bU, 0xbce841583e418bcaU, 0xbce84158bd877b74U,
  0xbe077b743f43f723U, 0x3f8645c73f76c56eU, 0x3dd4e6913d418bcaU, 0x3d9ad63bbde84158U,
  0x3eb307b43e2e3102U, 0xbe1ad63b3e1ad63bU, 0xbc9ad63bbce84158U, 0xbd418bca3d1ad63bU,
  0x3c9ad63b3f0c5225U, 0xbc9ad63b3dc18bcaU, 0xbdfb9c20bc9ad63bU, 0x3d9ad63b3f05101bU,
  0x3d684158bc1ad63bU, 0x3e24839f3f99a08fU, 0xbd6841583e077b74U, 0x3e1128d73ce84158U,
  0xbc9ad63b3f48cdd5U, 0x3f48cdd53f76c56eU, 0x3dc18bca3d1ad63bU, 0x3c9ad63bbd1ad63bU,
  0x3f186ae23e1128d7U, 0xbe4b392d3de84158U, 0x3d9ad63bbdd4e691U, 0xbe68415800000000U,
  0xbc1ad63b3f15ff89U, 0x3d1ad63b3de84158U, 0xbdd4e6913c9ad63bU, 0x3e6841583f05101bU,
  0xbe077b74bd1ad63bU, 0x3e1ad63b3f8ebd7eU, 0xbde841583d684158U, 0xbdae3102bd418bcaU,
  0xbd1ad63b3f2e3102U, 0x3f2e31023d684158U, 0xbd877b743d1ad63bU, 0x3c9ad63bbce84158U,
  0x3f2e31023dd4e691U, 0xbde841583e418bcaU, 0x3dfb9c20bc9ad63bU, 0xbd684158bce84158U,
  0xbe54e6913efb9c20U, 0xbc9ad63b3e37de66U, 0x3d6841583dae3102U, 0x3d418bca3f1d4194U,
  0xbde84158bc9ad63bU, 0x3de841583f877b74U, 0x3dae31023d418bcaU, 0xbe9128d7bdc18bcaU,
  0xbd1ad63b3e7b9c20U, 0x3f221846bdae3102U, 0xbd9ad63b3c9ad63bU, 0x3de84158bdfb9c20U,
  0x3f05101b3dfb9c20U, 0xbe24839f3dc18bcaU, 0x3d877b74bd418bcaU, 0xbdae31023ce84158U,
  0xbdd92d3a3ef8d927U, 0x3dd92d3a3dc7141fU, 0x3db4fb0500000000U, 0x3c90c8d13ef452e1U,
  0x3cd92d3aU, 0x3dfd5f6e3f3bc46fU, 0xbd10c8d13e19d55eU, 0xbe07bc44bdc7141fU,
  0xbdc7141f3ecb9a66U, 0x3f56ea163f8335fdU, 0x3d10c8d13e07bc44U, 0xbda2e1ebbd7d5f6eU,
  0x3ebe07923d90c8d1U, 0xbd7d5f6e3d90c8d1U, 0x3d592d3abdd92d3aU, 0xbe5020ac3dfd5f6eU,
  0xbc90c8d13f10c8d1U, 0xbd10c8d13d10c8d1U, 0xbdb4fb053dfd5f6eU, 0x3e22e1eb3eefcc9aU,
  0x3dd92d3a3c10c8d1U, 0x3cd92d3a3f4b9a66U, 0x3da2e1ebbc90c8d1U, 0xbda2e1ebbda2e1ebU,
  0xbd7d5f6e3ed4a6f3U, 0x3f78d9273f8fa73fU, 0x3e10c8d13deb4654U, 0xbc10c8d13d10c8d1U,
  0x3eddb3803dd92d3aU, 0x3c10c8d13e2bee78U, 0x3d34fb05bdd92d3aU, 0xbe7d5f6e3c10c8d1U,
  0x3d7d5f6e3f1c1881U, 0x3c90c8d13dc7141fU, 0x3cd92d3a00000000U, 0x3e2bee783ec28dd9U,
  0x3d90c8d1bd7d5f6eU, 0x3d7d5f6e3f47141fU, 0x3d7d5f6ebd90c8d1U, 0x3dfd5f6ebcd92d3aU,
  0xbd592d3a3f209ec8U, 0x3f428dd93f857921U, 0x3deb46543c10c8d1U, 0xbdb4fb05bc90c8d1U,
  0x3e8335fd3deb4654U, 0xbd10c8d13c90c8d1U, 0xbc10c8d1bda2e1ebU, 0xbdfd5f6e3d34fb05U,
  0xbd592d3a3f09ff67U, 0x3c10c8d13d34fb05U, 0x3dc7141f3db4fb05U, 0x3d34fb053f057921U,
  0x3cd92d3a3c90c8d1U, 0x3e19d55e3f690330U, 0xbd34fb05bc10c8d1U, 0xbc90c8d1bd7d5f6eU,
  0xbd10c8d13f17923bU, 0x3f720fbd3deb4654U, 0x3d7d5f6ebd592d3aU, 0xbc10c8d13d34fb05U,
  0x3eb4fb053dfd5f6eU, 0x3d90c8d13e07bc44U, 0xbda2e1ebU, 0xbd34fb053e10c8d1U,
  0xbdeb46543f17923bU, 0xbc10c8d13deb4654U, 0x3da2e1eb3db4fb05U, 0x3e47141f3efd5f6eU,
  0xbdc7141f3db4fb05U, 0x3d7d5f6e3f2e319bU, 0x3d34fb053c10c8d1U, 0xbda2e1ebbdfd5f6eU,
  0xbd90c8d13ee6c00dU, 0x3f647ceabdeb4654U, 0xbd34fb05bc10c8d1U, 0x3dd92d3abd592d3aU,
  0x3ed92d3abc10c8d1U, 0x3c90c8d13dd92d3aU, 0xbd10c8d13c90c8d1U, 0xbe6239c73da2e1ebU,
  0xbd8f3f1e3edb58a6U, 0x3c0f3f1e3e212702U, 0x3da127023e3c02d7U, 0x3d7aae743e983310U,
  0x3d56deadbc0f3f1eU, 0x3e2a1af43f39c5dbU, 0x3c0f3f1e3d0f3f1eU, 0x3c8f3f1ebda12702U,
  0xbcd6dead3ed6deadU, 0x3f3e3fd43f8be3a3U, 0x3e064b2c3d56deadU, 0x3dc4f6c9bd330ee6U,
  0x3ea5a0fbbc8f3f1eU, 0xbd0f3f1e3e0f3f1eU, 0x3d330ee6be56deadU, 0xbe2a1af43e064b2cU,
  0xbd330ee63ea5a0fbU, 0x3c8f3f1e3e2a1af4U, 0x3d7aae743e064b2cU, 0xbcd6dead3eb788deU,
  0xbc0f3f1e3d7aae74U, 0x3dc4f6c93f25a0fbU, 0x3d56deadbd0f3f1eU, 0xbd7aae74bd0f3f1eU,
  0xbda127023ec4f6c9U, 0x3f5fd29f3f852caeU, 0x3da127023cd6deadU, 0x3c8f3f1e3d56deadU,
  0x3ebc02d73de8c691U, 0x3db30ee63e212702U, 0x3c0f3f1ebdfaae74U, 0xbdfaae743e212702U,
  0xbd56dead3efaae74U, 0x3c8f3f1e3da12702U, 0x3c8f3f1e3c0f3f1eU, 0x3c8f3f1e3eb788deU,
  0x3da12702bda12702U, 0x3c8f3f1e3f25a0fbU, 0x3d0f3f1e00000000U, 0x3d7aae74be183310U,
  0xbd0f3f1e3ee44c98U, 0x3f3c02d73f8e20a0U, 0xbd330ee63dc4f6c9U, 0xbd56deadbda12702U,
  0x3ecdeabb3da12702U, 0xbcd6dead3c8f3f1eU, 0xbd0f3f1ebdc4f6c9U, 0xbdb30ee63db30ee6U,
  0xbdb30ee63f0ac525U, 0x3dc4f6c93e2a1af4U, 0x3cd6dead3e0f3f1eU, 0x3e330ee63ed264b4U,
  0x3cd6deadbdb30ee6U, 0x3dc4f6c93f3788deU, 0xbdb30ee6bd330ee6U, 0x3d56dead3d7aae74U,
  0xbdfaae743eff286dU, 0x3f407cd03d8f3f1eU, 0x3d8f3f1ebda12702U, 0x3d7aae743c0f3f1eU,
  0x3e9833103de8c691U, 0xbdd6dead3d7aae74U, 0xbd56deadbd330ee6U, 0xbdc4f6c93c8f3f1eU,
  0xbd0f3f1e3ee44c98U, 0x3d7aae743e2a1af4U, 0x3d8f3f1e3d0f3f1eU, 0x3d8f3f1e3efaae74U,
  0x3d0f3f1e3d330ee6U, 0x3cd6dead3f1a700cU, 0x3dc4f6c93dd6deadU, 0xbe330ee6be0f3f1eU,
  0xbcd6dead3edb58a6U, 0x3f4badbf3d0f3f1eU, 0xbcd6dead3dc4f6c9U, 0x3c8f3f1e3dc4f6c9U,
  0x3e56dead3e064b2cU, 0x3db30ee63c0f3f1eU, 0x3dc4f6c9bcd6deadU, 0xbe3c02d73e064b2cU,
  0xbd1288e13d65b3f9U, 0xbda45b41bb9e6a76U, 0x3d362da2bdddc840U, 0xbc86a74b3daa4c0cU,
  0x3d460514bc0e9304U, 0xbc5dc8403cfd7724U, 0x3cddc840bc0e9304U, 0x3dc20f38U,
  0xbdd9d263bb9e6a76U, 0xbdb432b43d265630U, 0x3bfd77243db03cd7U, 0x3c9e6a76bd84ac5dU,
  0xbcf58b6bbd51e6aaU, 0xbd51e6aa3c2e41e9U, 0xbd51e6aabc2e41e9U, 0x3d65b3f9bdf1958eU,
  0xbdc9faf1ba7d7724U, 0xbd7d7724bd65b3f9U, 0xbc2e41e93d8c9816U, 0x3d69a9d53dc9faf1U,
  0x3dc40a26bd7d7724U, 0xbdbc1e6dbd0e9304U, 0xbdbc1e6dbdef9aa0U, 0xbd9a749abd9879acU,
  0x3c1e6a763d55dc86U, 0xbcd5dc86bdbc1e6dU, 0x3afd7724bdd7d775U, 0xbd3237c53d362da2U,
  0xbdfb7c363cbe195bU, 0xbdddc8403d59d263U, 0xbc4df0cdbd1a749aU, 0xbd4df0cdbd02b16fU,
  0x3dc40a263dbc1e6dU, 0x3dc605143b3e195bU, 0x3db62da23d6d9fb2U, 0x3d55dc863dba237eU,
  0x3c6d9fb23db62da2U, 0xbd7d77243b9e6a76U, 0xbd908df3bd7d7724U, 0xbcf58b6b3d8a9d28U,
  0xbdcdf0cdbcbe195bU, 0xbcbe195b3d02b16fU, 0xbdc40a263dae41e9U, 0xbdc800023cae41e9U,
  0xbcd5dc86bdc9faf1U, 0x3c0e93043d3e195bU, 0xbcddc840bd8c9816U, 0xbdb237c5bdba237eU,
  0x3da06565bdddc840U, 0x3b9e6a763d3237c5U, 0x3d1288e13d9879acU, 0x3d51e6aabd80b680U,
  0x3d967ebdbcc60514U, 0xbd02b16f3c0e9304U, 0x3d71958ebc86a74bU, 0xbd758b6b3cbe195bU,
  0xbd02b16fbdc80002U, 0x3dbe195b3d362da2U, 0x3c8e93043d55dc86U, 0xbdd9d2633d2a4c0cU,
  0x3d9288e1bdc40a26U, 0x3d3e195bbd9e6a76U, 0x3ced9fb23d61be1cU, 0xbdd3e198bd59d263U,
  0x3d1288e1bdaa4c0cU, 0xbde9a9d5bd86a74bU, 0xbdd9d2633cbe195bU, 0x3da06565bdaa4c0cU,
  0xbdc9faf13db432b4U, 0xbdddc840bc967ebdU, 0x3db03cd73da45b41U, 0x3d1288e13d65b3f9U,
  0xbdf3907dbc9e6a76U, 0xbcddc840bdbc1e6dU, 0xbdd3e1983daa4c0cU, 0x3da8511ebc967ebdU,
  0x3d758b6bbde9a9d5U, 0xbd758b6bbdac46faU, 0x3c967ebdbdf98147U, 0x3cb62da23db82890U,
  0xbced4f1d3d0f3428U, 0x3da7c0c1bc82eddbU, 0x3d34070dbdb1fb56U, 0xbca3a952bd4c93a6U,
  0x3d02eddb3d0f3428U, 0xbce5203fbd891101U, 0x3d8d2870bd58d9f3U, 0x3d0f34283d1f91e3U,
  0xbd02eddbbccc93a6U, 0xbd9b7a743d1b7a74U, 0xbd5cf1623d487c37U, 0xbdd2b6ccbd95574eU,
  0x3c9b7a74bc134b96U, 0xbdc464c83d84f992U, 0xbde108d0bd176305U, 0xbdabd82fbda19d9aU,
  0x3d23a952bdbe41a2U, 0x3d9d862b3dd0ab15U, 0xbdc464c83d82eddbU, 0xbd87054abde31488U,
  0xbe01e7ffbdcc93a6U, 0xbcabd82fbd799569U, 0x3dd4c284bdca87efU, 0x3d71668cbde937aeU,
  0xbd2fef9e3dabd82fU, 0xbc65203f3c4464c8U, 0xbdba2a333da19d9aU, 0x3d34070dbd2fef9eU,
  0x3d3c35ebbdc67080U, 0xbda19d9abc65203fU, 0xbde937aebda7c0c1U, 0xbd8f3428bdf37243U,
  0xbdafef9ebd8d2870U, 0xbc8b1cb93d976305U, 0xbddae5aa3d9d862bU, 0x3da9cc783d487c37U,
  0x3be5203f3c34070dU, 0xbd9d862bbcabd82fU, 0x3dafef9ebd95574eU, 0x3d8d28703d9b7a74U,
  0xbcabd82fbd891101U, 0x3ccc93a6bd58d9f3U, 0x3d4c93a63da3a952U, 0x3cc464c8bd4c93a6U,
  0xbd6937aebd934b96U, 0x3d7dacd8bd50ab15U, 0xbd134b96ba82eddbU, 0xbc82eddbbd799569U,
  0x3c9b7a743b4464c8U, 0xbdca87ef3d9f91e3U, 0xbb82eddbbdc04d5aU, 0xbdef5ad4bdbe41a2U,
  0xbdc670803c54c284U, 0x3d891101bdef5ad4U, 0xbd54c284bdba2a33U, 0x3d1b7a74bd1b7a74U,
  0xbd0f3428bde31488U, 0x3d27c0c1bced4f1dU, 0x3d65203fbc65203fU, 0x3ca3a9523d934b96U,
  0x3d95574e00000000U, 0x3dba2a33bdd6ce3bU, 0x3c02eddbbd6937aeU, 0xbcb4070dbce5203fU,
  0xbde108d03d3c35ebU, 0xbd976305bce5203fU, 0xbde72bf73d80e224U, 0x3dc464c8bc54c284U,
  0xbdeb4366bced4f1dU, 0x3c8b1cb93d8f3428U, 0x3da19d9abd9b7a74U, 0x3ba3a952bc54c284U,
  0xbd8f342800000000U, 0x3d3c35ebbdafef9eU, 0xbd134b963d757dfbU, 0xbdbe41a2bcc464c8U,
  0xbc134b96bcb4070dU, 0x3d1b7a74bde937aeU, 0xbd0f34283c8b1cb9U, 0x3dd4c2843da5b509U,
  0xbda857a1bcd71aa3U, 0xbdc20fafbdc20fafU, 0xbd365eef3d73293eU, 0x3be074d7bcc4663cU,
  0xbd9ca6e13d7c8372U, 0xbb15a33abd365eefU, 0x3c8c4906bd97f9c7U, 0xbd90f620bd15a33aU,
  0xbdaf5b48bdd016fdU, 0xbdc4663c3db65eefU, 0xbce9cf0bbdbfb922U, 0xbdc20fafbd4dc070U,
  0x3d9ca6e13dbd6295U, 0xbca857a13dbb0c08U, 0x3db1b1d5ba95a33aU, 0x3c8c4906bd44663cU,
  0x3dbd62953d95a33aU, 0x3c15a33a3dc20fafU, 0x3dc20fafbca857a1U, 0xbcf3293e3ce9cf0bU,
  0x3d526d8a3c3b0c08U, 0xbdd4c4163c82eed3U, 0x3dad04bbbd571aa3U, 0xbda601143cb1b1d5U,
  0xbd90f6203c6074d7U, 0x3d8545603b95a33aU, 0xbd079bed3d9a5054U, 0xbb6074d73a95a33aU,
  0xbdd971303d77d658U, 0x3d89f279bbe074d7U, 0x3d1efd6e3d0c4906U, 0xbd5bc7bd3d31b1d5U,
  0x3cd71aa3bce9cf0bU, 0x3d5bc7bdbd0c4906U, 0xbdde1e4a3d4dc070U, 0x3d90f620bc3b0c08U,
  0x3cfc8372bdaaae2eU, 0x3d69cf0bbd2d04bbU, 0x3dad04bb3cd71aa3U, 0xbb15a33a3dbb0c08U,
  0xbe1477f4bd879bedU, 0x3c9efd6e3de074d7U, 0xbdec2598bd3fb922U, 0xbdd71aa33d8c4906U,
  0xbde2cb64bd2857a1U, 0x3d10f620bdbb0c08U, 0xbde7787e3d571aa3U, 0xbd31b1d5bcfc8372U,
  0x3d23aa87bc6074d7U, 0xbd3fb9223b15a33aU, 0xbc15a33a3cbb0c08U, 0xbdd4c416bd365eefU,
  0x3cc4663c3d15a33aU, 0x3d526d8a3c4dc070U, 0xbde521f13c15a33aU, 0x3d95a33abd31b1d5U,
  0xbdfed9ff3be074d7U, 0xbda60114bdaaae2eU, 0xbd31b1d5bda857a1U, 0xbd7c83723c82eed3U,
  0xbdc913563d6521f1U, 0x3d31b1d5bc95a33aU, 0x3d6521f1bdd4c416U, 0xbdd71aa3bc02eed3U,
  0xbc3b0c08bccdc070U, 0xbda60114bd89f279U, 0xbc6074d73c82eed3U, 0x3d89f2793d854560U,
  0xbd3fb9223b95a33aU, 0x3d31b1d5be122167U, 0x3d9a5054bdf57fcbU, 0x3d44663cbcb1b1d5U,
  0xbe10f6203ca857a1U, 0xbc95a33abdd4c416U, 0xbb6074d7bde2cb64U, 0xbd934cadbde9cf0bU,
  0xbd95a33a3d77d658U, 0x3d4dc070bdaf5b48U, 0xbd854560bdec2598U, 0xbdde1e4a3dcdc070U,
  0xbc864d35be736bf0U, 0xbe62a249be27e082U, 0xbe0eb2083e864d35U, 0x3e38aa29bea3ae19U,
  0xbd064d35be38aa29U, 0x3e27e082be9716dcU, 0xbdeb071d3d064d35U, 0x3deb071d3d6b071dU,
  0x3d064d35bd4973d0U, 0xbf1d627abf6d2052U, 0x3e064d35bcc973d0U, 0xbeef3986bc064d35U,
  0xbe7bd0c3be064d35U, 0xbe51d8a3U, 0xbeb045563e064d35U, 0x3ea7e0823e5a3d76U,
  0x3db8aa29be5a3d76U, 0xbe92e472bea7e082U, 0xbe8a7f9f3c864d35U, 0x3dfbd0c3be62a249U,
  0xbcc973d0be9716dcU, 0x3deb071dbe62a249U, 0xbe736bf0bcc973d0U, 0x3e0eb2083d9716dcU,
  0x3e6b071dbdda3d76U, 0xbe9f7bafbf85409bU, 0x3dda3d76bdda3d76U, 0xbec973d0bd6b071dU,
  0xbe736bf0be864d35U, 0xbdda3d76be736bf0U, 0xbe7bd0c33deb071dU, 0x3e9716dc3d864d35U,
  0x3d9716dcbe6b071dU, 0xbe51d8a3be6b071dU, 0xbdeb071d3dc973d0U, 0x3e6b071dbeac12ecU,
  0xbd064d35be92e472U, 0x3dc973d0be864d35U, 0xbeb045563e064d35U, 0x3e1f7baf3d27e082U,
  0x3e1716dc3d27e082U, 0xbebcdc93bf7bd0c3U, 0x3e064d35bdb8aa29U, 0xbe0eb208bd9716dcU,
  0xbdeb071dbd064d35U, 0xbd864d35bc064d35U, 0xbd064d353db8aa29U, 0x3e821acb3e064d35U,
  0x3cc973d0be410efcU, 0xbd064d353d064d35U, 0xbe864d353e736bf0U, 0x3e27e082be8eb208U,
  0x3d864d35be410efcU, 0x3dfbd0c3be864d35U, 0xbe38aa293d864d35U, 0xbc864d353e27e082U,
  0x3d27e082be304556U, 0xbf454166bc864d35U, 0x3d4973d03d27e082U, 0x3d4973d0bdb8aa29U,
  0xbe7bd0c3bdfbd0c3U, 0x3c064d35bdeb071dU, 0x3d864d353deb071dU, 0x3ebcdc933e38aa29U,
  0x3cc973d0bdeb071dU, 0x3db8aa293c064d35U, 0xbdc973d03e7bd0c3U, 0x3e864d35be4973d0U,
  0xbd064d35be1f7bafU, 0x3e5a3d76be9716dcU, 0xbdda3d763d6b071dU, 0x3d27e0823e4973d0U,
  0x3e7bd0c3be821acbU, 0xbf3ac35ebc064d35U, 0xbcc973d03d064d35U, 0x3d864d35bd6b071dU,
  0xbe7bd0c33d9716dcU, 0x3db8aa29bdb8aa29U, 0xbcc973d03c064d35U, 0x3e8eb2083e304556U,
  0xbe1378ab3fa496adU, 0xbd2889e8bd2889e8U, 0x3c2889e8bde7bd9fU, 0x3d52ac623f90d683U,
  0x3e72463e3e72463eU, 0x3f8a4120U, 0xbc2889e8bd2889e8U, 0x3e4823c4be3d9b25U,
  0xbe08f00c3f234599U, 0x3f72463e3f8ce348U, 0x3ca889e83ecd6813U, 0xbd52ac623d52ac62U,
  0x3f30705fbdd2ac62U, 0x3e83abbdbd7ccedcU, 0xbdbd9b25be83abbdU, 0x3da889e8bca889e8U,
  0x3ca889e83fa738d4U, 0x3d9378ab3ca889e8U, 0xbd52ac62bd2889e8U, 0x3d52ac623f778a8dU,
  0x3dd2ac623e2889e8U, 0x3e08f00c3f57f0b1U, 0xbd9378abbdfccedcU, 0x3d52ac62be5d3500U,
  0xbd7ccedc3f234599U, 0x3f8109963f88f00cU, 0x3d7ccedc3f010996U, 0x3d52ac623e08f00cU,
  0x3f33128600000000U, 0x3e9378abbd52ac62U, 0xbca889e8be52ac62U, 0x3e4823c4bd52ac62U,
  0x3d52ac623fa0a371U, 0x3e1e014abd7ccedcU, 0x3e1e014aU, 0x3dfccedc3f864de5U,
  0x3e2889e83ea34599U, 0x3da889e83f3af8fdU, 0x3d2889e8U, 0x3de7bd9f3c2889e8U,
  0xbcfccedc3ef2463eU, 0x3f8a41203f864de5U, 0x3d2889e83ef78a8dU, 0xbda889e8bc2889e8U,
  0x3f18bcfa3da889e8U, 0x3eadce373d52ac62U, 0x3dd2ac623cfccedcU, 0x3e7ccedc3e08f00cU,
  0xbca889e83f8b9234U, 0x3ea889e8bd7ccedcU, 0x3e1378ab3e08f00cU, 0x3e3312863f72463eU,
  0x3da889e83e2889e8U, 0x3dbd9b253f1e014aU, 0xbd9378abbdbd9b25U, 0xbe08f00cU,
  0xbcfccedc3f0e345cU, 0x3f90d6833e3d9b25U, 0x3c2889e83ef78a8dU, 0x3d2889e83d9378abU,
  0x3f0109963cfccedcU, 0x3e88f00c3cfccedcU, 0xbda889e8bde7bd9fU, 0x3ed7f0b13d52ac62U,
  0x3d7ccedc3f331286U, 0x3e1378ab3dfccedcU, 0x3c2889e83cfccedcU, 0x3e08f00c3f20a371U,
  0x3e3312863e83abbdU, 0x3da889e83f161ad3U, 0x3e67bd9fbe1378abU, 0x3de7bd9fbc2889e8U,
  0xbc2889e83f08f00cU, 0x3f879ef9bd9378abU, 0x3cfccedc3e2889e8U, 0xbe1378ab00000000U,
  0x3eb31286bd7ccedcU, 0x3e83abbd3d2889e8U, 0xbd9378abbdd2ac62U, 0x3ec2df743e08f00cU,
  0x3dfb87eabe742209U, 0xbdecbc28be7b87eaU, 0xbd13f5993e5df066U, 0x3dcf24a3be0c8fb8U,
  0x3d13f599be8529d6U, 0x3e0c8fb8bee55647U, 0xbdfb87ea3dc058e0U, 0x3d4f24a300000000U,
  0x3e318d1ebe4f24a3U, 0xbf121c21bf6ae2b0U, 0x3cecbc283d13f599U, 0xbcb18d1ebc6cbc28U,
  0xbeda3d75bd8529d6U, 0xbe13f599bd13f599U, 0xbdddf0663d318d1eU, 0x3e6556473e568a84U,
  0xbcb18d1ebec7bec2U, 0xbe655647be8c8fb8U, 0xbd318d1ebbecbc28U, 0x3e4058e0bef06f19U,
  0x3cb18d1ebe8c8fb8U, 0x3da2c15cbeb18d1eU, 0xbe318d1e3d13f599U, 0x3becbc283e13f599U,
  0x3cb18d1e00000000U, 0xbf08dcc7bf0e6930U, 0x3dddf066be2a273dU, 0xbe5df0663d8529d6U,
  0xbe97a88abe4058e0U, 0xbe318d1ebdecbc28U, 0xbdfb87ea3d93f599U, 0x3eb5400f3e0529d6U,
  0x3dcf24a3be88dcc7U, 0xbe9b5b7abecf24a3U, 0xbdecbc283e318d1eU, 0x3e38f2ffbf03505eU,
  0x3dcf24a3be4058e0U, 0x3d318d1ebe38f2ffU, 0xbe4f24a33cecbc28U, 0x3d93f599bbecbc28U,
  0x3e318d1ebe318d1eU, 0xbf198202beadda2dU, 0x3e0529d6bdcf24a3U, 0xbe38f2ff3dc058e0U,
  0xbe0c8fb8be8529d6U, 0xbe0c8fb8be22c15cU, 0xbe0529d63c6cbc28U, 0x3e6cbc283decbc28U,
  0x3dc058e0beb8f2ffU, 0xbe4058e0be4f24a3U, 0xbe38f2ff3d4f24a3U, 0x3d4f24a3bed68a84U,
  0x3e13f599be1b5b7aU, 0x3e4058e0be655647U, 0xbdcf24a33decbc28U, 0x3dcf24a33dcf24a3U,
  0x3d318d1ebe318d1eU, 0xbf1042a8bdc058e0U, 0x3d93f599be0529d6U, 0xbe4f24a33db18d1eU,
  0xbbecbc28be568a84U, 0xbe47bec2be742209U, 0xbe6cbc283e13f599U, 0x3e47bec23d13f599U,
  0x3d318d1ebeadda2dU, 0xbe4f24a3be9f0e6bU, 0xbcecbc283e4058e0U, 0x3db18d1ebeb18d1eU,
  0x3d8529d6bdc058e0U, 0x3d8529d6be93f599U, 0xbdcf24a3bd4f24a3U, 0xbcb18d1ebc6cbc28U,
  0x3dcf24a3bdcf24a3U, 0xbf5863fdbd93f599U, 0xbbecbc283d6cbc28U, 0xbe8176e6bdc058e0U,
  0xbdfb87eabdc058e0U, 0xbe13f599be318d1eU, 0xbd318d1e3cecbc28U, 0x3e9f0e6b3d6cbc28U,
  0xbe01578f3ec6530fU, 0x3d9b35df3c89f6ffU, 0xbccef27e3e2c74bfU, 0x3d71703e3ea3d54fU,
  0x3d9b35df3d4ef27eU, 0x3d09f6ff3f2e9c9bU, 0x3c09f6ff3d89f6ffU, 0xbe01578fU,
  0xbe46530f3ee0315eU, 0x3f373c0b3f826b7dU, 0x3e60315ebc09f6ffU, 0xbd2c74bfU,
  0x3ee481163df1703eU, 0x3d89f6ff3df1703eU, 0x3d09f6ffbe4ef27eU, 0xbe81578f00000000U,
  0xbd89f6ff3e92966fU, 0x3c89f6ff3d71703eU, 0x3e35142fU, 0x3d9b35df3ec6530fU,
  0x3e46530fbd4ef27eU, 0x3e3db39f3f373c0bU, 0x3d09f6ff3dbdb39fU, 0xbd89f6ffbd89f6ffU,
  0xbc09f6ff3eb0c477U, 0x3f1f85973f6f4862U, 0x3d9b35dfbdac74bfU, 0x3df1703ebdbdb39fU,
  0x3e92966f00000000U, 0x3dac74bf3e46530fU, 0x3d4ef27ebe1b35dfU, 0xbe35142f3df1703eU,
  0xbdcef27e3ebdb39fU, 0x3e01578f3d4ef27eU, 0x3dcef27e3df1703eU, 0x3e3db39f3efe5f66U,
  0x3e4ef27e3d4ef27eU, 0x3e46530f3f2c74bfU, 0xbdbdb39fbc89f6ffU, 0x3e09f6ff00000000U,
  0xbdf1703e3eb5142fU, 0x3f3b8bc33f88e311U, 0x3d71703ebdac74bfU, 0x3d09f6ffbc89f6ffU,
  0x3edbe1a6bccef27eU, 0x3c89f6ff3e60315eU, 0x3e09f6ff3c09f6ffU, 0xbdbdb39f3d4ef27eU,
  0xbc89f6ff3ec20357U, 0x3c09f6ff3e23d54fU, 0x0U, 0x3e23d54f3ec20357U,
  0x3c89f6ff3de0315eU, 0x3f442b33U, 0x3dac74bf3c89f6ffU, 0xbdf1703eU,
  0xbdf1703e3ea3d54fU, 0x3f32ec533e09f6ffU, 0x3e01578f3c09f6ffU, 0x3df1703ebd89f6ffU,
  0x3e92966f3d2c74bfU, 0xbd4ef27e3d89f6ffU, 0x3d71703e3c09f6ffU, 0xbe46530f3dbdb39fU,
  0xbd89f6ff3ec20357U, 0xbc09f6ff3c89f6ffU, 0xbd71703e3e35142fU, 0x3dbdb39f3eed2086U,
  0x3d09f6ff3de0315eU, 0x3df1703e3f373c0bU, 0xbd2c74bf3ccef27eU, 0xbd71703e3d09f6ffU,
  0xbdac74bf3eb5142fU, 0x3f59b9cabdcef27eU, 0x3c09f6ff00000000U, 0x3ccef27ebd9b35dfU,
  0x3ebdb39f3d71703eU, 0xbdac74bf3d09f6ffU, 0x3e01578fbd89f6ffU, 0xbe2c74bf3c89f6ffU,
  0xbe5ace943ea41aefU, 0xbc427ebc3e4ea6a8U, 0x3d91df0d3dc27ebcU, 0x3ddace943ea41aefU,
  0xbd91df0dbdf31e6bU, 0x3dc27ebc3f85b721U, 0x3d427ebc00000000U, 0xbe4ea6a8be427ebcU,
  0xbd91df0d3f17f303U, 0x3f7f46573f85b721U, 0x3e5ace94bd731e6bU, 0x3d11df0dbd427ebcU,
  0x3ecea6a83d731e6bU, 0xbe427ebc3d91df0dU, 0xbe3656d0U, 0xbe4ea6a83e427ebcU,
  0xbe11df0d3eed0a75U, 0x3d427ebcbc427ebcU, 0x3dc27ebcU, 0x3daa2ee43ea41aefU,
  0x3dc27ebcbdaa2ee4U, 0x3e1e06f93f94e908U, 0x3ddace943dc27ebcU, 0x3d91df0dbe2a2ee4U,
  0xbddace943f63ec84U, 0x3f63ec843f8d5015U, 0x3e7f4657bd91df0dU, 0x3daa2ee4bc427ebcU,
  0x3eb656d0bcc27ebcU, 0xbe2a2ee4bd427ebcU, 0x3d731e6bbe11df0dU, 0xbe427ebcbd11df0dU,
  0xbd731e6b3eff4657U, 0x3ddace9400000000U, 0x3d91df0d3d427ebcU, 0x3e1e06f93e9e06f9U,
  0x3e427ebc00000000U, 0xbc427ebc3fc0f9bfU, 0x3d91df0dbd11df0dU, 0x3e1e06f900000000U,
  0xbcc27ebc3f4588b7U, 0x3f51b0a33f905a10U, 0x3e11df0d3dc27ebcU, 0xbdaa2ee43cc27ebcU,
  0x3ef932613e1e06f9U, 0xbe05b721bd731e6bU, 0x3daa2ee43daa2ee4U, 0xbe731e6b3d427ebcU,
  0xbd91df0d3ea41aefU, 0x3ddace943e2a2ee4U, 0x3d731e6b3e3656d0U, 0x3cc27ebc3f0ed512U,
  0xbc427ebc3d11df0dU, 0x3dc27ebc3fb656d0U, 0xbd11df0d3d427ebcU, 0xbe3656d0bdc27ebcU,
  0x3cc27ebc3f17f303U, 0x3f4ea6a83e66f67fU, 0x3c427ebcbd91df0dU, 0xbcc27ebc3d731e6bU,
  0x3eb656d03d731e6bU, 0x3d91df0d3d427ebcU, 0x3daa2ee43d731e6bU, 0xbe85b7213cc27ebcU,
  0xbe3656d03e97f303U, 0x3e3656d0U, 0x3d11df0d3e427ebcU, 0x3ddace943f2110f4U,
  0xbe11df0dbc427ebcU, 0x3e731e6b3f9afcfeU, 0xbdc27ebc3e2a2ee4U, 0xbe2a2ee43c427ebcU,
  0xbe2a2ee43eed0a75U, 0x3f731e6b00000000U, 0xbcc27ebc3dc27ebcU, 0x3d91df0d3d11df0dU,
  0x3ec27ebc3e1e06f9U, 0x3d731e6b3ddace94U, 0xbcc27ebcbd427ebcU, 0xbe8bcb173daa2ee4U,
  0xbe6565563f5972b9U, 0x3c18ee393e359ae4U, 0x3d18ee39U, 0x3e48b8ab3ef8831dU,
  0x3d3f29c7bd18ee39U, 0xbc18ee393f7157f2U, 0x3d6565563e0f5f55U, 0xbdd2478ebe52478eU,
  0xbe8109003f29a847U, 0x3f8f5f553f7157f2U, 0x3e18ee393c18ee39U, 0xbdd2478e3d3f29c7U,
  0x3ecd801d3d18ee39U, 0xbc18ee393d656556U, 0xbce56556be3f29c7U, 0xbebf29c73e05d072U,
  0xbdac0c003f418d80U, 0x3d85d0723dd2478eU, 0x3d18ee393d18ee39U, 0x3df8831d3ecd801dU,
  0x3ce565563c18ee39U, 0x3c98ee393f97bc5dU, 0x3d85d0723e18ee39U, 0x3ce56556be3f29c7U,
  0xbc98ee393f1b51f2U, 0x3f359ae43f87024eU, 0x3dd2478e3dac0c00U, 0x3d18ee39bdd2478eU,
  0x3edbd6723e0f5f55U, 0x3c18ee393ce56556U, 0xbdbf29c7be359ae4U, 0xbe656556bce56556U,
  0xbd6565563f6a2cc7U, 0xbc18ee393df8831dU, 0xbc18ee393c98ee39U, 0x3e227d1d3f0f5f55U,
  0xbc18ee39bdd2478eU, 0x3e359ae43f97bc5dU, 0xbdbf29c73dbf29c7U, 0x3d3f29c7bdd2478eU,
  0x3f29a847U, 0x3f4654f23f7ae6d6U, 0x3e18ee393dbf29c7U, 0xbc98ee393dac0c00U,
  0x3f1b51f23d656556U, 0x3ce56556U, 0xbd18ee393ce56556U, 0xbe227d1d3ce56556U,
  0x3d3f29c73f63019dU, 0x3e227d1d3dac0c00U, 0xbe05d0723ce56556U, 0x3e18ee393f0cfb9dU,
  0x3d98ee39be18ee39U, 0x3e05d0723f85d072U, 0xbd3f29c7bd18ee39U, 0xbdf8831d3d3f29c7U,
  0xbce565563eea2cc7U, 0x3f78831dbd3f29c7U, 0xbc98ee393dbf29c7U, 0xbd18ee39bc98ee39U,
  0x3ef3bbabbc18ee39U, 0x3c98ee393dac0c00U, 0x3d18ee39bdd2478eU, 0xbe18ee393d18ee39U,
  0xbc18ee393f5972b9U, 0x3d18ee393e2c0c00U, 0xbde565563e78831dU, 0x3e0f5f553f3a6255U,
  0xbd18ee393d656556U, 0x3e8109003f5bd672U, 0xbd98ee393dd2478eU, 0xbe18ee39bd656556U,
  0xbe2c0c003f11c30eU, 0x3f7157f2be05d072U, 0x3dac0c003e656556U, 0x3c98ee39bde56556U,
  0x3eea2cc73dbf29c7U, 0xbd18ee393dbf29c7U, 0x3e0f5f55be18ee39U, 0xbdbf29c73e359ae4U,
  0xbd1439adbd9439adU, 0xbda6c0e3be0af612U, 0x3d3948183e428bb3U, 0x3e30047dbe1439adU,
